{
  "vocab": {
    "!": 0,
    "\"": 1,
    "#": 2,
    "$": 3,
    "%": 4,
    "&": 5,
    "'": 6,
    "(": 7,
    ")": 8,
    "*": 9,
    "+": 10,
    ",": 11,
    "-": 12,
    ".": 13,
    "/": 14,
    "0": 15,
    "1": 16,
    "2": 17,
    "3": 18,
    "4": 19,
    "5": 20,
    "6": 21,
    "7": 22,
    "8": 23,
    "9": 24,
    ":": 25,
    ";": 26,
    "<": 27,
    "=": 28,
    ">": 29,
    "?": 30,
    "@": 31,
    "A": 32,
    "B": 33,
    "C": 34,
    "D": 35,
    "E": 36,
    "F": 37,
    "G": 38,
    "H": 39,
    "I": 40,
    "J": 41,
    "K": 42,
    "L": 43,
    "M": 44,
    "N": 45,
    "O": 46,
    "P": 47,
    "Q": 48,
    "R": 49,
    "S": 50,
    "T": 51,
    "U": 52,
    "V": 53,
    "W": 54,
    "X": 55,
    "Y": 56,
    "Z": 57,
    "[": 58,
    "\\": 59,
    "]": 60,
    "_": 61,
    "`": 62,
    "a": 63,
    "b": 64,
    "c": 65,
    "d": 66,
    "e": 67,
    "f": 68,
    "g": 69,
    "h": 70,
    "i": 71,
    "j": 72,
    "k": 73,
    "l": 74,
    "m": 75,
    "n": 76,
    "o": 77,
    "p": 78,
    "q": 79,
    "r": 80,
    "s": 81,
    "t": 82,
    "u": 83,
    "v": 84,
    "w": 85,
    "x": 86,
    "y": 87,
    "z": 88,
    "|": 89,
    "~": 90,
    "¡": 91,
    "£": 92,
    "¬": 93,
    "®": 94,
    "°": 95,
    "µ": 96,
    "·": 97,
    "¸": 98,
    "¾": 99,
    "×": 100,
    "Ü": 101,
    "á": 102,
    "æ": 103,
    "é": 104,
    "í": 105,
    "ó": 106,
    "þ": 107,
    "ă": 108,
    "ĺ": 109,
    "ʼ": 110,
    "α": 111,
    "β": 112,
    "Б": 113,
    "И": 114,
    "П": 115,
    "С": 116,
    "Я": 117,
    "а": 118,
    "б": 119,
    "в": 120,
    "г": 121,
    "д": 122,
    "е": 123,
    "ж": 124,
    "з": 125,
    "и": 126,
    "й": 127,
    "к": 128,
    "л": 129,
    "м": 130,
    "н": 131,
    "о": 132,
    "п": 133,
    "р": 134,
    "с": 135,
    "т": 136,
    "у": 137,
    "ф": 138,
    "х": 139,
    "ч": 140,
    "ш": 141,
    "ы": 142,
    "ь": 143,
    "я": 144,
    "٫": 145,
    "۔": 146,
    "ँ": 147,
    "ं": 148,
    "ः": 149,
    "अ": 150,
    "आ": 151,
    "इ": 152,
    "ई": 153,
    "उ": 154,
    "ऊ": 155,
    "ऋ": 156,
    "ए": 157,
    "ऐ": 158,
    "ऑ": 159,
    "ओ": 160,
    "औ": 161,
    "क": 162,
    "ख": 163,
    "ग": 164,
    "घ": 165,
    "ङ": 166,
    "च": 167,
    "छ": 168,
    "ज": 169,
    "झ": 170,
    "ञ": 171,
    "ट": 172,
    "ठ": 173,
    "ड": 174,
    "ढ": 175,
    "ण": 176,
    "त": 177,
    "थ": 178,
    "द": 179,
    "ध": 180,
    "न": 181,
    "प": 182,
    "फ": 183,
    "ब": 184,
    "भ": 185,
    "म": 186,
    "य": 187,
    "र": 188,
    "ल": 189,
    "व": 190,
    "श": 191,
    "ष": 192,
    "स": 193,
    "ह": 194,
    "़": 195,
    "ा": 196,
    "ि": 197,
    "ी": 198,
    "ु": 199,
    "ू": 200,
    "ृ": 201,
    "े": 202,
    "ै": 203,
    "ॉ": 204,
    "ो": 205,
    "ौ": 206,
    "्": 207,
    "ॐ": 208,
    "।": 209,
    "॥": 210,
    "२": 211,
    "॰": 212,
    "ঁ": 213,
    "ং": 214,
    "ঃ": 215,
    "অ": 216,
    "আ": 217,
    "ই": 218,
    "ঈ": 219,
    "উ": 220,
    "ঊ": 221,
    "ঋ": 222,
    "ঌ": 223,
    "এ": 224,
    "ঐ": 225,
    "ও": 226,
    "ঔ": 227,
    "ক": 228,
    "খ": 229,
    "গ": 230,
    "ঘ": 231,
    "ঙ": 232,
    "চ": 233,
    "ছ": 234,
    "জ": 235,
    "ঝ": 236,
    "ঞ": 237,
    "ট": 238,
    "ঠ": 239,
    "ড": 240,
    "ঢ": 241,
    "ণ": 242,
    "ত": 243,
    "থ": 244,
    "দ": 245,
    "ধ": 246,
    "ন": 247,
    "প": 248,
    "ফ": 249,
    "ব": 250,
    "ভ": 251,
    "ম": 252,
    "য": 253,
    "র": 254,
    "ল": 255,
    "শ": 256,
    "ষ": 257,
    "স": 258,
    "হ": 259,
    "়": 260,
    "া": 261,
    "ি": 262,
    "ী": 263,
    "ু": 264,
    "ূ": 265,
    "ৃ": 266,
    "ৄ": 267,
    "ে": 268,
    "ৈ": 269,
    "ো": 270,
    "ৌ": 271,
    "্": 272,
    "ৗ": 273,
    "য়": 274,
    "ৠ": 275,
    "০": 276,
    "১": 277,
    "২": 278,
    "৩": 279,
    "৪": 280,
    "৫": 281,
    "৬": 282,
    "৭": 283,
    "৮": 284,
    "৯": 285,
    "ৰ": 286,
    "ৱ": 287,
    "৸": 288,
    "৹": 289,
    "৺": 290,
    "੦": 291,
    "​": 292,
    "‌": 293,
    "‍": 294,
    "–": 295,
    "—": 296,
    "‘": 297,
    "’": 298,
    "“": 299,
    "”": 300,
    "•": 301,
    "…": 302,
    "‼": 303,
    "⁰": 304,
    "₹": 305,
    "⃣": 306,
    "℅": 307,
    "™": 308,
    "▪": 309,
    "▫": 310,
    "▶": 311,
    "●": 312,
    "◾": 313,
    "♂": 314,
    "♥": 315,
    "✨": 316,
    "❌": 317,
    "❗": 318,
    "❤": 319,
    "⬆": 320,
    "⬇": 321,
    "⭐": 322,
    "️": 323,
    "𝐁": 324,
    "𝐃": 325,
    "𝐈": 326,
    "𝐚": 327,
    "𝐝": 328,
    "𝐟": 329,
    "𝐠": 330,
    "𝐢": 331,
    "𝐧": 332,
    "𝐨": 333,
    "𝐫": 334,
    "𝐬": 335,
    "𝐭": 336,
    "𝐰": 337,
    "𝑪": 338,
    "𝒆": 339,
    "𝒉": 340,
    "𝒔": 341,
    "𝘋": 342,
    "𝘠": 343,
    "𝘢": 344,
    "𝘥": 345,
    "𝘦": 346,
    "𝘨": 347,
    "𝘩": 348,
    "𝘪": 349,
    "𝘰": 350,
    "𝘱": 351,
    "𝘳": 352,
    "𝘴": 353,
    "𝘵": 354,
    "𝘺": 355,
    "𝘼": 356,
    "𝘾": 357,
    "𝙃": 358,
    "𝙄": 359,
    "𝙈": 360,
    "𝙉": 361,
    "𝙊": 362,
    "𝙋": 363,
    "𝙎": 364,
    "𝙏": 365,
    "𝙐": 366,
    "𝙒": 367,
    "𝙖": 368,
    "𝙙": 369,
    "𝙚": 370,
    "𝙝": 371,
    "𝙞": 372,
    "𝙣": 373,
    "𝙧": 374,
    "🅰": 375,
    "🇦": 376,
    "🇩": 377,
    "🇫": 378,
    "🇬": 379,
    "🇭": 380,
    "🇮": 381,
    "🇰": 382,
    "🇳": 383,
    "🇵": 384,
    "🇷": 385,
    "🇸": 386,
    "🇺": 387,
    "🌏": 388,
    "🌹": 389,
    "🎉": 390,
    "🏆": 391,
    "🏏": 392,
    "🏔": 393,
    "🏻": 394,
    "🏼": 395,
    "🏽": 396,
    "🏾": 397,
    "👀": 398,
    "👇": 399,
    "👊": 400,
    "👍": 401,
    "👏": 402,
    "👶": 403,
    "💓": 404,
    "💕": 405,
    "💖": 406,
    "💗": 407,
    "💘": 408,
    "💙": 409,
    "💚": 410,
    "💛": 411,
    "💜": 412,
    "💞": 413,
    "💥": 414,
    "💫": 415,
    "📸": 416,
    "📹": 417,
    "📽": 418,
    "🔝": 419,
    "🔥": 420,
    "🕌": 421,
    "🖤": 422,
    "😁": 423,
    "😂": 424,
    "😆": 425,
    "😊": 426,
    "😍": 427,
    "😎": 428,
    "😘": 429,
    "😢": 430,
    "😭": 431,
    "😱": 432,
    "😳": 433,
    "🙂": 434,
    "🙈": 435,
    "🙌": 436,
    "🙏": 437,
    "🚀": 438,
    "🤍": 439,
    "🤝": 440,
    "🤣": 441,
    "🤦": 442,
    "🤮": 443,
    "🤯": 444,
    "🤲": 445,
    "🥞": 446,
    "🥰": 447,
    "🥳": 448,
    "🥺": 449,
    "🦁": 450,
    "🧳": 451,
    "🫢": 452,
    "🫶": 453,
    "াৰ": 454,
    "্ৰ": 455,
    "কৰ": 456,
    "্য": 457,
    "্ত": 458,
    "ান": 459,
    "য়": 460,
    "বি": 461,
    "ৰা": 462,
    "প্ৰ": 463,
    "বা": 464,
    "তি": 465,
    "তে": 466,
    "িল": 467,
    "ছে": 468,
    "ৰ্": 469,
    "নি": 470,
    "আৰ": 471,
    "িত": 472,
    "ক্": 473,
    "াল": 474,
    "কৰি": 475,
    "স্": 476,
    "সম": 477,
    "না": 478,
    "ক্ষ": 479,
    "ৰি": 480,
    "ন্": 481,
    "কা": 482,
    "াত": 483,
    "কে": 484,
    "দি": 485,
    "ষ্": 486,
    "াই": 487,
    "ন্ত": 488,
    "োৱ": 489,
    "আৰু": 490,
    "কাৰ": 491,
    "বে": 492,
    "হৈ": 493,
    "ীয়": 494,
    "লৈ": 495,
    "লি": 496,
    "স্থ": 497,
    "জন": 498,
    "মা": 499,
    "ীৰ": 500,
    "এই": 501,
    "কল": 502,
    "ভা": 503,
    "্ব": 504,
    "ছিল": 505,
    "িক": 506,
    "লা": 507,
    "হা": 508,
    "ুৰ": 509,
    "দে": 510,
    "কৰা": 511,
    "নে": 512,
    "ষ্ট": 513,
    "নৰ": 514,
    "পৰা": 515,
    "সা": 516,
    "দ্": 517,
    "পৰি": 518,
    "ছে।": 519,
    "ৰে": 520,
    "মু": 521,
    "ভি": 522,
    "গ্ৰ": 523,
    "ন্দ": 524,
    "ুৱ": 525,
    "সং": 526,
    "োগ": 527,
    "কি": 528,
    "ীয়": 529,
    "হি": 530,
    "পি": 531,
    "টো": 532,
    "টা": 533,
    "সকল": 534,
    "কৰে": 535,
    "ক্ত": 536,
    "লগ": 537,
    "পা": 538,
    "োৱা": 539,
    "লে": 540,
    "লো": 541,
    "ব্য": 542,
    "্চ": 543,
    "অন": 544,
    "ওঁ": 545,
    "দ্ধ": 546,
    "বাবে": 547,
    "মান": 548,
    "তা": 549,
    "মন্ত": 550,
    "াৰে": 551,
    "পৰ": 552,
    "ক্ৰ": 553,
    "বু": 554,
    "খন": 555,
    "তেওঁ": 556,
    "ণ্": 557,
    "কো": 558,
    "কৰিব": 559,
    "থা": 560,
    "্যা": 561,
    "দু": 562,
    "য়া": 563,
    "মে": 564,
    "টি": 565,
    "শি": 566,
    "ৰাক": 567,
    "যে": 568,
    "্ৰী": 569,
    "প্ৰতি": 570,
    "অনু": 571,
    "বৰ": 572,
    "চৰ": 573,
    "ৰাজ": 574,
    "গৰাক": 575,
    "যোগ": 576,
    "মি": 577,
    "আৰক্ষ": 578,
    "জি": 579,
    "গা": 580,
    "্‍": 581,
    "পে": 582,
    "নত": 583,
    "চি": 584,
    "চা": 585,
    "দা": 586,
    "চাৰ": 587,
    "সে": 588,
    "জে": 589,
    "ষ্ঠ": 590,
    "হত": 591,
    "য়া": 592,
    "াৰ্": 593,
    "অভি": 594,
    "ীয়ে": 595,
    "ঘট": 596,
    "হ'": 597,
    "নো": 598,
    "নিৰ্": 599,
    "ছিল।": 600,
    "দেশ": 601,
    "ৃত": 602,
    "লগতে": 603,
    "ণ্ড": 604,
    "খ্য": 605,
    "ম্": 606,
    "ভাৰ": 607,
    "কৈ": 608,
    "বুলি": 609,
    "দ্য": 610,
    "ঞ্চ": 611,
    "ত্ৰ": 612,
    "য়ে": 613,
    "পু": 614,
    "স্ত": 615,
    "িব": 616,
    "উপ": 617,
    "বিশ": 618,
    "হৈছে": 619,
    "প্ৰা": 620,
    "ৱে": 621,
    "োৰ": 622,
    "হয়": 623,
    "মৰ": 624,
    "সম্": 625,
    "অসম": 626,
    "ঢ়": 627,
    "মাৰ": 628,
    "জা": 629,
    "জিল": 630,
    "কৰাৰ": 631,
    "ুৱা": 632,
    "ুল": 633,
    "গৰ": 634,
    "োৱাৰ": 635,
    "পূ": 636,
    "অধ": 637,
    "ডি": 638,
    "হে": 639,
    "স্থান": 640,
    "ীত": 641,
    "ীয়া": 642,
    "এক": 643,
    "য়ে": 644,
    "মন্ত্ৰী": 645,
    "বিষ": 646,
    "্ম": 647,
    "ছৰ": 648,
    "হ'ব": 649,
    "মহ": 650,
    "নাই": 651,
    "ধান": 652,
    "উত": 653,
    "ড়": 654,
    "চৰকাৰ": 655,
    "হৰ": 656,
    "ণৰ": 657,
    "লোক": 658,
    "ৰাজ্য": 659,
    "ান্ত": 660,
    "বৃ": 661,
    "লত": 662,
    "গৰাকী": 663,
    "আন": 664,
    "ল্": 665,
    "হু": 666,
    "কৰে।": 667,
    "শা": 668,
    "পুৰ": 669,
    "লৰ": 670,
    "বাৰ": 671,
    "গত": 672,
    "হাৰ": 673,
    "ন্ন": 674,
    "সু": 675,
    "ৰু": 676,
    "পিছ": 677,
    "কু": 678,
    "য়াৰ": 679,
    "বাদ": 680,
    "ন্দ্ৰ": 681,
    "দান": 682,
    "গো": 683,
    "ৰত": 684,
    "নী": 685,
    "বাৰে": 686,
    "সন্": 687,
    "মূ": 688,
    "অনুষ্ঠ": 689,
    "্ৰা": 690,
    "হৈছে।": 691,
    "কাৰ্য": 692,
    "ৰাই": 693,
    "অৱ": 694,
    "হোৱা": 695,
    "শু": 696,
    "গ্ৰহ": 697,
    "নাৰ": 698,
    "গাঁ": 699,
    "পূৰ্": 700,
    "ভাৰত": 701,
    "গৈ": 702,
    "খা": 703,
    "ব্যৱ": 704,
    "ক্তি": 705,
    "য়াৰ": 706,
    "্র": 707,
    "জান": 708,
    "২০": 709,
    "যু": 710,
    "ংশ": 711,
    "কৰিছে": 712,
    "মুখ্য": 713,
    "শিক্ষ": 714,
    "পতি": 715,
    "জৰ": 716,
    "যা": 717,
    "সমা": 718,
    "চে": 719,
    "।ই": 720,
    "ৱৰ": 721,
    "বিদ্য": 722,
    "ঘটনা": 723,
    "কাশ": 724,
    "উল্": 725,
    "থকা": 726,
    "প্ত": 727,
    "ধা": 728,
    "দিন": 729,
    "তাৰ": 730,
    "টে": 731,
    "উল্লে": 732,
    "কৰিবলৈ": 733,
    "এটা": 734,
    "ালে": 735,
    "সি": 736,
    "ালয়": 737,
    "ধ্য": 738,
    "in": 739,
    "ৰো": 740,
    "ষ্ট্ৰ": 741,
    "হয়": 742,
    "গ্ৰে": 743,
    "ুত": 744,
    "স্বা": 745,
    "ক্ষে": 746,
    "জাৰ": 747,
    "মাজ": 748,
    "ধাৰ": 749,
    "ীয়ে": 750,
    "পথ": 751,
    "মৃত": 752,
    "আজি": 753,
    "াত্ৰ": 754,
    "িলে": 755,
    "সৈ": 756,
    "স্থা": 757,
    "পো": 758,
    "চল": 759,
    "কেই": 760,
    "খে": 761,
    "আৰক্ষী": 762,
    "টাৰ": 763,
    "কৃ": 764,
    "ন্তু": 765,
    "দল": 766,
    "পাৰ": 767,
    "ষ্টি": 768,
    "সভা": 769,
    "স্থিত": 770,
    "ীয়া": 771,
    "মো": 772,
    "সৈতে": 773,
    "দৰ": 774,
    "ছি": 775,
    "িত্‍": 776,
    "সকলে": 777,
    "on": 778,
    "লাভ": 779,
    "পত": 780,
    "গ্ৰহণ": 781,
    "আই": 782,
    "গে": 783,
    "ৰাষ্ট্ৰ": 784,
    "জু": 785,
    "বছৰ": 786,
    "খি": 787,
    "মূল": 788,
    "পান": 789,
    "েষ": 790,
    "বহু": 791,
    "ণা": 792,
    "সমূ": 793,
    "বিশ্ব": 794,
    "বলৈ": 795,
    "খনৰ": 796,
    "ম্ভ": 797,
    "ঞ্": 798,
    "পিছত": 799,
    "চিক": 800,
    "।এই": 801,
    "পন": 802,
    "নিৰ্বা": 803,
    "সৰ": 804,
    "কৰিছে।": 805,
    "জিলা": 806,
    "ভিত": 807,
    "আহি": 808,
    "আছে": 809,
    "যুৱ": 810,
    "ীন": 811,
    "কিন্তু": 812,
    "শ্ৰ": 813,
    "সেই": 814,
    "এতি": 815,
    "শ্": 816,
    "আগ": 817,
    "চিকিত্‍": 818,
    "হাট": 819,
    "ar": 820,
    "িতি": 821,
    "ন্দু": 822,
    "সূ": 823,
    "সো": 824,
    "বিভা": 825,
    "an": 826,
    "ভূ": 827,
    "বিজে": 828,
    "ভিন্ন": 829,
    "বৃদ্ধ": 830,
    "কৰ্ম": 831,
    "কোনো": 832,
    "কেন্দ্ৰ": 833,
    "পঢ়": 834,
    "াৰ্থ": 835,
    "সকলৰ": 836,
    "জ্": 837,
    "st": 838,
    "সদ": 839,
    "উপস্থিত": 840,
    "ব্ৰ": 841,
    "ীক্ষ": 842,
    "প্ৰকাশ": 843,
    "ভাৱে": 844,
    "মত": 845,
    "সময়": 846,
    "যদি": 847,
    "উত্ত": 848,
    "বিভিন্ন": 849,
    "সকলো": 850,
    "টোৰ": 851,
    "প্ৰদান": 852,
    "টৰ": 853,
    "নিৰ্বাচ": 854,
    "মনো": 855,
    "বৃদ্ধি": 856,
    "বিজেপি": 857,
    "লী": 858,
    "ঘৰ": 859,
    "ধি": 860,
    "সহ": 861,
    "গু": 862,
    "টকা": 863,
    "দৰে": 864,
    "ব্": 865,
    "অঞ্চ": 866,
    "কং": 867,
    "বাহ": 868,
    "তেওঁৰ": 869,
    "পাৰে": 870,
    "ালয়": 871,
    "ম্ব": 872,
    "আৰম্ভ": 873,
    "বী": 874,
    "পঢ়ক": 875,
    "ৰণ": 876,
    "বাস": 877,
    "বিধা": 878,
    "বিত": 879,
    "কথা": 880,
    "at": 881,
    "বান": 882,
    "লোকৰ": 883,
    "হিন্দু": 884,
    "তো": 885,
    "জী": 886,
    "প্ৰে": 887,
    "কয়": 888,
    "িলা": 889,
    "দী": 890,
    "ৰ্থ": 891,
    "ধৰি": 892,
    "er": 893,
    "হোৱাৰ": 894,
    "বৰ্": 895,
    "এখন": 896,
    "ন্ধ": 897,
    "অভিযোগ": 898,
    "কাৰী": 899,
    "ইউ": 900,
    "জ্ঞ": 901,
    "গুৰ": 902,
    "ক্ৰম": 903,
    "ৰ্শ": 904,
    "ুন": 905,
    "ৱা": 906,
    "জানিব": 907,
    "থম": 908,
    "তথা": 909,
    "কংগ্ৰে": 910,
    "কাম": 911,
    "হিচা": 912,
    "অতি": 913,
    "অনুষ্ঠিত": 914,
    "পদ": 915,
    "িতা": 916,
    "ছাত্ৰ": 917,
    "আৰক্ষীয়ে": 918,
    "আছে।": 919,
    "ডে": 920,
    "সমাচাৰ": 921,
    "হিন্দুস্থান": 922,
    "চু": 923,
    "যান": 924,
    "ালি": 925,
    "েই": 926,
    "বৈ": 927,
    "গাঁও": 928,
    "উচ": 929,
    "দ্ধে": 930,
    "লাই": 931,
    "তী": 932,
    "তিনি": 933,
    "গুৱা": 934,
    "ফলত": 935,
    "হাতে": 936,
    "বিৰু": 937,
    "মুখ": 938,
    "ধন": 939,
    "মৃত্য": 940,
    "বিদ্যালয়": 941,
    "গুৱাহাট": 942,
    "ণি": 943,
    "বিৰুদ্ধে": 944,
    "সময়": 945,
    "।লগতে": 946,
    "দুৰ্": 947,
    "এনে": 948,
    "এজন": 949,
    "যে,": 950,
    "বিশেষ": 951,
    "ভাৱ": 952,
    "বোৰ": 953,
    "কৰিছিল": 954,
    "অনুষ্ঠান": 955,
    "মতে": 956,
    "জিলাৰ": 957,
    "স্য": 958,
    "শৰ্": 959,
    "উল্লেখ": 960,
    "লোকে": 961,
    "মন্ত্ৰ": 962,
    "যোৱা": 963,
    "ক্ষেত্ৰ": 964,
    "হিচাপে": 965,
    "প্ৰধান": 966,
    "তৰ": 967,
    "সকলক": 968,
    "১০": 969,
    "ালৰ": 970,
    "মাণ": 971,
    "সৰি": 972,
    "যি": 973,
    "অভিযান": 974,
    "ফল": 975,
    "খনত": 976,
    "ৃষ্টি": 977,
    "ছা": 978,
    "ৰ্ভ": 979,
    "মুখ্যমন্ত্ৰী": 980,
    "োৱে": 981,
    "চাৰি": 982,
    "ছু": 983,
    "কৰিছিল।": 984,
    "ভো": 985,
    "সাং": 986,
    "ব্যা": 987,
    "ৌৰ": 988,
    "সাম": 989,
    "ওপৰ": 990,
    "মনোজ": 991,
    "অনুসৰি": 992,
    "es": 993,
    "্প": 994,
    "আছিল": 995,
    "পূৰ্ণ": 996,
    "আহ": 997,
    "আৰক্ষীৰ": 998,
    "তিক": 999,
    "চিকিত্‍স": 1000,
    "দ্ব": 1001,
    "দেশৰ": 1002,
    "am": 1003,
    "ফে": 1004,
    "গৰাকীয়ে": 1005,
    "হৈছিল": 1006,
    "সংঘট": 1007,
    "নতুন": 1008,
    "হয়।": 1009,
    "সংঘটিত": 1010,
    "ুৱাৰ": 1011,
    "জৰি": 1012,
    "ক্ৰি": 1013,
    "ধী": 1014,
    "উদ্ধ": 1015,
    "জনক": 1016,
    "পৰীক্ষ": 1017,
    "ডা": 1018,
    "কয়": 1019,
    "হৈছিল।": 1020,
    "সংগ": 1021,
    "আনহাতে": 1022,
    "এছ": 1023,
    "জীৱ": 1024,
    "প্র": 1025,
    "নাম": 1026,
    "সভাপতি": 1027,
    "োষ": 1028,
    "গ্ৰা": 1029,
    "ৰূ": 1030,
    "য়ো": 1031,
    "/মনোজ": 1032,
    "লক্ষ": 1033,
    "অংশ": 1034,
    "্তি": 1035,
    "al": 1036,
    "দৰ্শ": 1037,
    "বৰ্ত": 1038,
    "শাস": 1039,
    "য়ক": 1040,
    "টোত": 1041,
    "ed": 1042,
    "ালী": 1043,
    "মধ্য": 1044,
    "মহিলা": 1045,
    "খ্যা": 1046,
    "থান": 1047,
    "সী": 1048,
    "জাত": 1049,
    "চৰকাৰে": 1050,
    "ধৰ": 1051,
    "মহা": 1052,
    "পাছ": 1053,
    "্যে": 1054,
    "শী": 1055,
    "অধিক": 1056,
    "গুৰুত": 1057,
    "স্থিতি": 1058,
    "ভিতৰত": 1059,
    "অন্ত": 1060,
    "ালৈ": 1061,
    "উল্লেখ্য": 1062,
    "ঁচ": 1063,
    "স্বাস্থ": 1064,
    "উদ্ধাৰ": 1065,
    "র্": 1066,
    "সূচ": 1067,
    "ওপৰত": 1068,
    "সৃষ্টি": 1069,
    "en": 1070,
    "পাই": 1071,
    "স্বাস্থ্য": 1072,
    "।আ": 1073,
    "টক": 1074,
    "সম্প": 1075,
    "প্ৰথম": 1076,
    "ন্যা": 1077,
    "তু": 1078,
    "ক্ষম": 1079,
    "অসমৰ": 1080,
    "কৰিলে": 1081,
    "ধাৰণ": 1082,
    "মৃত্যু": 1083,
    "লাখ": 1084,
    "মাজত": 1085,
    "ক্ষেত্ৰত": 1086,
    "সন্দ": 1087,
    "ক'": 1088,
    "ীক": 1089,
    "উত্‍": 1090,
    "বন্ধ": 1091,
    "যদিও": 1092,
    "ফালে": 1093,
    "১৯": 1094,
    "বাই": 1095,
    "চাল": 1096,
    "বন": 1097,
    "শতা": 1098,
    "বৰ্তমান": 1099,
    "পাল": 1100,
    "ুক্ত": 1101,
    "সন্দৰ্ভ": 1102,
    "হয়।": 1103,
    "থাকি": 1104,
    "মূল্য": 1105,
    "মাই": 1106,
    "নেত": 1107,
    "নামৰ": 1108,
    "ss": 1109,
    "০০": 1110,
    "সমূহ": 1111,
    "সমাচাৰ/": 1112,
    "জনৰ": 1113,
    "নেতা": 1114,
    "তিৰ": 1115,
    "ী,": 1116,
    "কৃষ": 1117,
    "জনা": 1118,
    "বো": 1119,
    "তথ": 1120,
    "ব্যক্তি": 1121,
    "লগে": 1122,
    "ট্ৰ": 1123,
    "হাত": 1124,
    "or": 1125,
    "ব্যৱস্থা": 1126,
    "ান্": 1127,
    "তথ্য": 1128,
    "ৰ্ক": 1129,
    "ংগ": 1130,
    "শ্ব": 1131,
    "সন্দৰ্ভত": 1132,
    "লাগ": 1133,
    "ৰোগ": 1134,
    "কলি": 1135,
    "দাবী": 1136,
    "গৃ": 1137,
    "শ্চ": 1138,
    "ানৰ": 1139,
    "যুক্ত": 1140,
    "মাধ্য": 1141,
    "ত্যা": 1142,
    "কিছু": 1143,
    "প্ৰাৰ্থ": 1144,
    "দ্ৰ": 1145,
    "নিজৰ": 1146,
    "ভে": 1147,
    "ঘোষ": 1148,
    "যুৱক": 1149,
    "বৰা": 1150,
    "আদি": 1151,
    "ঠি": 1152,
    "ৱেশ": 1153,
    "অহা": 1154,
    "চৰকাৰৰ": 1155,
    "বাহি": 1156,
    "এতিয়া": 1157,
    "ভৱ": 1158,
    "য়ো": 1159,
    "প্ৰতিবাদ": 1160,
    "ঞ্জ": 1161,
    "মাত": 1162,
    "পাদ": 1163,
    "াত্ৰী": 1164,
    "নিৰ": 1165,
    "ণত": 1166,
    "শো": 1167,
    "উচ্চ": 1168,
    "কোটি": 1169,
    "উপা": 1170,
    "পানী": 1171,
    "ঙৰ": 1172,
    "জনাই": 1173,
    "সংখ্যা": 1174,
    "গছ": 1175,
    "'ল": 1176,
    "দেহ": 1177,
    "এন": 1178,
    "কুমাৰ": 1179,
    "ৰৰ": 1180,
    "অঞ্চল": 1181,
    "ion": 1182,
    "জো": 1183,
    "কেইবা": 1184,
    "পুনৰ": 1185,
    "ছবি": 1186,
    "ৱৰ্ত": 1187,
    "তেই": 1188,
    "গ্": 1189,
    "উত্তৰ": 1190,
    "ব।": 1191,
    "চনা": 1192,
    "তিমধ্য": 1193,
    "টোৱে": 1194,
    "বিভাগৰ": 1195,
    "একা": 1196,
    "িত্ৰ": 1197,
    "দেখা": 1198,
    "ভাল": 1199,
    "ঘা": 1200,
    "এগৰাকী": 1201,
    "বেদ": 1202,
    "থাকে": 1203,
    "প্": 1204,
    "পৰিয়": 1205,
    "মন্তব্য": 1206,
    "সময়ত": 1207,
    "শে": 1208,
    "ৰাজ্যৰ": 1209,
    "it": 1210,
    "উদ্য": 1211,
    "সভাৰ": 1212,
    "দিয়া": 1213,
    "একে": 1214,
    "বিষয়া": 1215,
    "ক্ষা": 1216,
    "ব্যৱসা": 1217,
    "তেওঁলোকৰ": 1218,
    "সাধাৰণ": 1219,
    "পক": 1220,
    "ণ্ট": 1221,
    "চলাই": 1222,
    "স্ক": 1223,
    "চনৰ": 1224,
    "তিমধ্যে": 1225,
    "ষ্টা": 1226,
    "।হিন্দুস্থান": 1227,
    "ুৱাই": 1228,
    "সিদ্ধ": 1229,
    "গুৰুত্ব": 1230,
    "থি": 1231,
    "কুৰ": 1232,
    "।কিন্তু": 1233,
    "প্তাৰ": 1234,
    "ৰঙ": 1235,
    "সক্ষম": 1236,
    "চলি": 1237,
    "ic": 1238,
    "মিক": 1239,
    "লাৰ": 1240,
    "ভৰ": 1241,
    "দিয়ে": 1242,
    "ইয়াৰ": 1243,
    "নিশা": 1244,
    "কাৰ্যসূচ": 1245,
    "নাথ": 1246,
    "ক্ৰান্ত": 1247,
    "ণ্ডৰ": 1248,
    "কত": 1249,
    "াৰা": 1250,
    "খিল": 1251,
    "হ'ল": 1252,
    "হিত": 1253,
    "সহা": 1254,
    "পৌৰ": 1255,
    "শতাংশ": 1256,
    "অন্য": 1257,
    "পূৰ্বে": 1258,
    "সভ": 1259,
    "ৰাখি": 1260,
    "সুৰ": 1261,
    "বিধায়ক": 1262,
    "জনে": 1263,
    "পৰে": 1264,
    "ফু": 1265,
    "ভোট": 1266,
    "মুঠ": 1267,
    "এম": 1268,
    "ক।": 1269,
    "গৰাকীৰ": 1270,
    "ডৰ": 1271,
    "নং": 1272,
    "শিল": 1273,
    "ালা": 1274,
    "মী": 1275,
    "টাই": 1276,
    "প্ৰায়": 1277,
    "মানু": 1278,
    "গ্ৰেপ্তাৰ": 1279,
    "ব্দ": 1280,
    "ভাষ": 1281,
    "দলৰ": 1282,
    "সংবাদ": 1283,
    "ক্ৰেই": 1284,
    "২২": 1285,
    "অৱশ": 1286,
    "ঢ়ি": 1287,
    "য়ন": 1288,
    "দিল": 1289,
    "কৰ্": 1290,
    "টু": 1291,
    "বৰ্ষ": 1292,
    "ৰ্ষ": 1293,
    "১৫": 1294,
    "শোৰ": 1295,
    ")।": 1296,
    "বিদ্যালয়": 1297,
    "পুনি": 1298,
    "কিশোৰ": 1299,
    "অধি": 1300,
    "মিল": 1301,
    "বিগত": 1302,
    "সৰ্": 1303,
    "ঘোষণা": 1304,
    "(A": 1305,
    "দন্ত": 1306,
    "কাই": 1307,
    "হ'ব।": 1308,
    "জয়": 1309,
    "সন্ত": 1310,
    "বঢ়": 1311,
    "ৰিক": 1312,
    "কংগ্ৰেছ": 1313,
    "াত্‍": 1314,
    "পৰিস্থিতি": 1315,
    "ড্ৰা": 1316,
    "সমিতি": 1317,
    "চনত": 1318,
    "গি": 1319,
    "সমগ্ৰ": 1320,
    "হত্যা": 1321,
    "পোৱা": 1322,
    "আপো": 1323,
    "গাঁৱৰ": 1324,
    "আত": 1325,
    "মন": 1326,
    "আমি": 1327,
    "চন": 1328,
    "ভূমি": 1329,
    "উদ্": 1330,
    "কল্প": 1331,
    "ৰাছি": 1332,
    "বজাৰ": 1333,
    "পিত": 1334,
    "লগত": 1335,
    "চ্": 1336,
    "ধু": 1337,
    "ালত": 1338,
    "োৱাত": 1339,
    "অ'": 1340,
    "শিক্ষা": 1341,
    "ইউক্ৰেই": 1342,
    "তদন্ত": 1343,
    "য়ত": 1344,
    "কৰো": 1345,
    "ssam": 1346,
    "জ্য": 1347,
    "গোচৰ": 1348,
    "্ৰাস": 1349,
    "আদ": 1350,
    "পৰ্য": 1351,
    "গুৱাহাটী": 1352,
    "ইন": 1353,
    "লু": 1354,
    "সদস্য": 1355,
    "উন্ন": 1356,
    "খু": 1357,
    "অধ্য": 1358,
    "ৱল": 1359,
    "নিৰ্দেশ": 1360,
    "নম্ব": 1361,
    "ৱাৰ্": 1362,
    "্বান": 1363,
    "িম": 1364,
    "আছিল।": 1365,
    "বিৰো": 1366,
    "হন": 1367,
    "প্ৰাপ্ত": 1368,
    "পাৰে।": 1369,
    "ধিক": 1370,
    "কী": 1371,
    "হাজাৰ": 1372,
    "ন্ত্ৰ": 1373,
    "ইয়াৰ": 1374,
    "ব্যাহত": 1375,
    "সামগ্ৰ": 1376,
    "টত": 1377,
    "লাগিব": 1378,
    "পত্ৰ": 1379,
    "ir": 1380,
    "ব্যৱহাৰ": 1381,
    "নিৰ্মাণ": 1382,
    "জল": 1383,
    "শং": 1384,
    "সিদ্ধান্ত": 1385,
    "স্ব": 1386,
    "জিত": 1387,
    "থে": 1388,
    "নিক": 1389,
    "ৱত": 1390,
    "ল'": 1391,
    "আগবঢ়": 1392,
    "ur": 1393,
    "সত": 1394,
    "মই": 1395,
    "ঙ্": 1396,
    "গড়": 1397,
    "হাই": 1398,
    "ফা": 1399,
    "য়াই": 1400,
    "ছাত্ৰী": 1401,
    "শক্তি": 1402,
    "ৰাইজে": 1403,
    "দেৱ": 1404,
    "২৪": 1405,
    "এফ": 1406,
    "দলে": 1407,
    "কর": 1408,
    "he": 1409,
    "যাৰ": 1410,
    "ঠা": 1411,
    "চিকিত্‍সা": 1412,
    "।ইয়াৰ": 1413,
    "NO": 1414,
    "শিৱ": 1415,
    "শ্ৰী": 1416,
    "পুৱা": 1417,
    "ঠন": 1418,
    "চো": 1419,
    "আক্ৰম": 1420,
    "প্ৰস্ত": 1421,
    "পক্ষ": 1422,
    "খল": 1423,
    "সময়ত": 1424,
    "িত্ব": 1425,
    "নিয়": 1426,
    "হিমন্ত": 1427,
    "ৰাম": 1428,
    "য়ক": 1429,
    "আটক": 1430,
    "উন্": 1431,
    "শৰ": 1432,
    "ৰেল": 1433,
    "থকাৰ": 1434,
    "অব্যাহত": 1435,
    "আপুনি": 1436,
    "প্ৰশাস": 1437,
    "প্ৰধানমন্ত্ৰী": 1438,
    "পৰিষ": 1439,
    "বৃহত": 1440,
    "চৰকাৰী": 1441,
    "ফি": 1442,
    "বিধান": 1443,
    "লোৱা": 1444,
    "জব্দ": 1445,
    "ৰাষ্ট্ৰপতি": 1446,
    "হো": 1447,
    "দিয়া": 1448,
    "।উল্লেখ্য": 1449,
    "গগৈ": 1450,
    "ভাগ": 1451,
    "ভাৰতীয়": 1452,
    "আল": 1453,
    "ানে": 1454,
    "বল": 1455,
    "উক্ত": 1456,
    "নেতৃত": 1457,
    "দিল্": 1458,
    "ছো": 1459,
    "e)": 1460,
    "ৰাজন": 1461,
    "সম্পাদ": 1462,
    "উত্": 1463,
    "খবৰ": 1464,
    "২১": 1465,
    "কম": 1466,
    "ৰাইজৰ": 1467,
    "বিজেপিৰ": 1468,
    "পুত্ৰ": 1469,
    "আক্ৰান্ত": 1470,
    "গণ": 1471,
    "পৰিছে": 1472,
    "যোগ্য": 1473,
    "কাৰণ": 1474,
    "কৰ্মচাৰ": 1475,
    "দাৰ": 1476,
    "আহ্বান": 1477,
    "জয়": 1478,
    "এতিয়া": 1479,
    "য়।": 1480,
    "সাৰ": 1481,
    "৩০": 1482,
    "চেষ্টা": 1483,
    "শুভ": 1484,
    "অনুষ্ঠানত": 1485,
    "দুৰ্ঘটনা": 1486,
    "ক্ষিত": 1487,
    "মুকলি": 1488,
    "ৰাষ্ট্ৰীয়": 1489,
    "জুল": 1490,
    "১২": 1491,
    "পৰীক্ষা": 1492,
    "প্ৰায়": 1493,
    "ত্‍": 1494,
    "ক্তন": 1495,
    "কাৰ্": 1496,
    "le": 1497,
    "ৰাখ": 1498,
    "১৮": 1499,
    "লোকক": 1500,
    "ড়িত": 1501,
    "দূ": 1502,
    "শিশু": 1503,
    "ড্ৰাগছ": 1504,
    "।আনহাতে": 1505,
    "কৃত": 1506,
    "পিছতে": 1507,
    "বৰপে": 1508,
    "ইতিমধ্যে": 1509,
    "সভাত": 1510,
    "লক্ষ্য": 1511,
    "দায়": 1512,
    "চাই": 1513,
    "উত্থা": 1514,
    "অৰ্থ": 1515,
    "িৰ": 1516,
    "স্থানীয়": 1517,
    "জাই": 1518,
    "কংগ্ৰেছৰ": 1519,
    "কৰ্ত": 1520,
    "ভিড": 1521,
    "শিক্ষক": 1522,
    "্তৰ": 1523,
    "গৃহ": 1524,
    "সমূহৰ": 1525,
    "দ্বিত": 1526,
    "নিয়": 1527,
    "প্ৰেৰণ": 1528,
    "আঁচ": 1529,
    "টকাৰ": 1530,
    "সন্মুখ": 1531,
    "সংখ্য": 1532,
    "।তেওঁ": 1533,
    "অৱশ্যে": 1534,
    "প্ৰাক্তন": 1535,
    "খেল": 1536,
    "মাৰ্চ": 1537,
    "খাৰ": 1538,
    "আৰক্ষীয়ে": 1539,
    "দুই": 1540,
    "আলো": 1541,
    "গৈছে।": 1542,
    "po": 1543,
    "ণী": 1544,
    "ৈতিক": 1545,
    "পুৰৰ": 1546,
    "মুখ্যমন্ত্ৰ": 1547,
    "উপৰি": 1548,
    "পৰিয়": 1549,
    "ংক": 1550,
    "সমষ্টি": 1551,
    "পঢ়ক:": 1552,
    "সম্পৰ্ক": 1553,
    "১৪": 1554,
    "নাই।": 1555,
    "দৰ্শন": 1556,
    "ঘটনাৰ": 1557,
    "পাত": 1558,
    "উদ": 1559,
    "মহান": 1560,
    "দিব": 1561,
    "ষ্ঠান": 1562,
    "কেৱল": 1563,
    "লিক": 1564,
    "উদ্যোগ": 1565,
    "বাৰৰ": 1566,
    "গৈছে": 1567,
    "আত্ম": 1568,
    "ভাই": 1569,
    "দিনৰ": 1570,
    "লাগে": 1571,
    "নিজ": 1572,
    "অৰ্": 1573,
    "জন্": 1574,
    "যুক্তি": 1575,
    "স্যা": 1576,
    "প্ৰাৰ্থী": 1577,
    "ৰাষ্ট্ৰীয়": 1578,
    "য়ন": 1579,
    "শান্ত": 1580,
    "হস্": 1581,
    "অৱস্থ": 1582,
    "ণ্ডি": 1583,
    "ভাৰতৰ": 1584,
    "ধীন": 1585,
    "গতি": 1586,
    "দুটা": 1587,
    "সিং": 1588,
    "য়াই": 1589,
    "সম্পাদক": 1590,
    "১১": 1591,
    "সৰবৰা": 1592,
    "লং": 1593,
    "সম্পূৰ্ণ": 1594,
    "গুল": 1595,
    "শ্য": 1596,
    "খাদ্য": 1597,
    "চৌ": 1598,
    "ৰী": 1599,
    "of": 1600,
    "চহৰ": 1601,
    "আমাৰ": 1602,
    "ধৰণৰ": 1603,
    "দাখিল": 1604,
    "জড়িত": 1605,
    "থাকিব": 1606,
    "তম": 1607,
    "য়োজন": 1608,
    "নেতৃত্ব": 1609,
    "আহিছে": 1610,
    "কৰাত": 1611,
    "মতে,": 1612,
    "দেও": 1613,
    "আপোনাৰ": 1614,
    "দ্বাৰা": 1615,
    "দেশত": 1616,
    "শৰ্মা": 1617,
    "শ্ৰে": 1618,
    "বিহ": 1619,
    "ing": 1620,
    "প্ৰি": 1621,
    "সোম": 1622,
    "ধৰ্": 1623,
    "বিদ্যালয়ৰ": 1624,
    "৫০": 1625,
    "রা": 1626,
    "শৰ্মাই": 1627,
    "লীত": 1628,
    "ent": 1629,
    "ৰাজহ": 1630,
    "বুলিও": 1631,
    "নীৰ": 1632,
    "।ইফালে": 1633,
    "চাহ": 1634,
    "আহত": 1635,
    "দাস": 1636,
    "সমস্যা": 1637,
    "বৃহত্‍": 1638,
    "মৃতদেহ": 1639,
    "নগাঁও": 1640,
    "এল": 1641,
    "বিষয়া": 1642,
    "্যৰ": 1643,
    "শেহত": 1644,
    "টিৰ": 1645,
    "ক্ৰী": 1646,
    "20": 1647,
    "য়াত": 1648,
    "মোদ": 1649,
    "দৈ": 1650,
    "চলা": 1651,
    "ap": 1652,
    "বিমান": 1653,
    "ষ্টে": 1654,
    "বিভাগ": 1655,
    "আঁ": 1656,
    "ক্ষতি": 1657,
    "is": 1658,
    "শেষ": 1659,
    "জীৱন": 1660,
    "নীতি": 1661,
    "''": 1662,
    "তীব্ৰ": 1663,
    "সাগৰ": 1664,
    "জুলাই": 1665,
    "ro": 1666,
    "কৰণ": 1667,
    "মিত": 1668,
    "সাহিত": 1669,
    "ৰাজ্যিক": 1670,
    "তকৈ": 1671,
    "দিৱ": 1672,
    "কৰিব।": 1673,
    "ালক": 1674,
    "মাতৃ": 1675,
    "অংশগ্ৰহণ": 1676,
    "নাগ": 1677,
    "কেন্দ্ৰীয়": 1678,
    "সহযোগ": 1679,
    "পৰ্যা": 1680,
    "য়ুক্ত": 1681,
    "চক্ৰ": 1682,
    "pe": 1683,
    "ৰূপ": 1684,
    "অগ্": 1685,
    "ag": 1686,
    "বছৰৰ": 1687,
    "বিচাৰি": 1688,
    "মাত্ৰ": 1689,
    "বৈঠ": 1690,
    "তুলি": 1691,
    "ঙি": 1692,
    "হী": 1693,
    "as": 1694,
    "পাৰ্": 1695,
    "re": 1696,
    "ত্য": 1697,
    "জ্ঞা": 1698,
    "ন,": 1699,
    "জ্ঞান": 1700,
    "বজাত": 1701,
    "ব্যস্ত": 1702,
    "অগ্নি": 1703,
    "বুৰ": 1704,
    "আন্ত": 1705,
    "পাছত": 1706,
    "ক্স": 1707,
    "জ্যো": 1708,
    "লগা": 1709,
    "নক": 1710,
    "আস": 1711,
    "পানীৰ": 1712,
    "ৰাং": 1713,
    "১৬": 1714,
    "পৃ": 1715,
    "এপ্ৰ": 1716,
    "বিৰোধী": 1717,
    "'ত": 1718,
    "নাত": 1719,
    "মহানগৰ": 1720,
    "বেদন": 1721,
    "এপ্ৰিল": 1722,
    "গ্ৰাম": 1723,
    "দিয়াৰ": 1724,
    "গাড়": 1725,
    "বিহু": 1726,
    "সন্ধান": 1727,
    "সৰবৰাহ": 1728,
    "থানাৰ": 1729,
    "দক্ষ": 1730,
    "শনি": 1731,
    "য়োজন": 1732,
    "তেওঁলোকে": 1733,
    "ওচৰ": 1734,
    "ঠাই": 1735,
    "একাংশ": 1736,
    "য়ৰ": 1737,
    "যাত": 1738,
    "হ্ৰাস": 1739,
    "স্ত্ৰ": 1740,
    "বুধ": 1741,
    "োল": 1742,
    "লগীয়া": 1743,
    "বাদি": 1744,
    "কেট": 1745,
    "তেওঁক": 1746,
    "য়।": 1747,
    "ংকৰ": 1748,
    "অন্তৰ্": 1749,
    "অৱস্থাত": 1750,
    "il": 1751,
    "গৰাকীক": 1752,
    "কামৰ": 1753,
    "কৃষি": 1754,
    "কাল": 1755,
    "ঘৰৰ": 1756,
    "উত্থাপন": 1757,
    "পালন": 1758,
    "অনুসৰি,": 1759,
    "ঙল": 1760,
    "ৱাৰ্ড": 1761,
    "বাহন": 1762,
    "স্কৃ": 1763,
    "id": 1764,
    "য়ত": 1765,
    "১৭": 1766,
    "জানিবলৈ": 1767,
    "ct": 1768,
    "নিশ্চ": 1769,
    "সাংবাদি": 1770,
    "শিল্প": 1771,
    "যুদ্ধ": 1772,
    "উপল": 1773,
    "ভ্ৰ": 1774,
    "অধ্যক্ষ": 1775,
    "ঘাত": 1776,
    "হস্পতি": 1777,
    "বৃহস্পতি": 1778,
    "AS": 1779,
    "কৰ্মী": 1780,
    "য়াত": 1781,
    "ৰাশি": 1782,
    "জ্যোতি": 1783,
    "স্থাপন": 1784,
    "মাণৰ": 1785,
    "ন্দৰ": 1786,
    "ৱৰ্তী": 1787,
    "শ্বে": 1788,
    "গুৰুত্বপূৰ্ণ": 1789,
    "অধী": 1790,
    "ad": 1791,
    "পঞ্চ": 1792,
    "মঙল": 1793,
    "সূত্ৰ": 1794,
    "জ্ব": 1795,
    "যথে": 1796,
    "প্ৰশ্": 1797,
    "বড়": 1798,
    "বাৰী": 1799,
    "সেৱা": 1800,
    "সংক্ৰম": 1801,
    "কেন্দ্ৰীয়": 1802,
    "পাঠ": 1803,
    "ক্ষেপ": 1804,
    "ইছ": 1805,
    "ব্ৰুৱাৰ": 1806,
    "(Assam": 1807,
    "সীমান": 1808,
    "ভৰ্তি": 1809,
    "যোগে": 1810,
    "কট": 1811,
    "কাণ্ড": 1812,
    "স্প": 1813,
    "নৱ": 1814,
    "াৰৰ": 1815,
    "ানি": 1816,
    "২৫": 1817,
    "and": 1818,
    "পত্": 1819,
    "ইক": 1820,
    "এইবাৰ": 1821,
    "আলোক": 1822,
    "to": 1823,
    "ব্যৱসায়": 1824,
    "তিয়া": 1825,
    "বিষয়": 1826,
    "আলোচনা": 1827,
    "লাম": 1828,
    "ভাৰতীয়": 1829,
    "নিহত": 1830,
    "পৰিচাল": 1831,
    "সঞ্চ": 1832,
    "বিষয়ে": 1833,
    "ঞ্জা": 1834,
    "ধ্ব": 1835,
    "মণি": 1836,
    "১৩": 1837,
    "নগৰ": 1838,
    "ন্দি": 1839,
    "যথেষ্ট": 1840,
    "পৰিৱেশ": 1841,
    "ফেব্ৰুৱাৰ": 1842,
    "নহয়": 1843,
    "সমষ্টিৰ": 1844,
    "ুতি": 1845,
    "দায়": 1846,
    "তাত": 1847,
    "সোমবাৰে": 1848,
    "খাত": 1849,
    "বিপৰ": 1850,
    "জন্ম": 1851,
    "খৰ": 1852,
    "উল্লেখযোগ্য": 1853,
    "সিক": 1854,
    "অন্তৰ্গত": 1855,
    "ূপ": 1856,
    "ীতে": 1857,
    "আজিৰ": 1858,
    "শাৰ": 1859,
    "ভাবে": 1860,
    "লীৰ": 1861,
    "সমিতিৰ": 1862,
    "অভিযুক্ত": 1863,
    "চ্চ": 1864,
    "রে": 1865,
    "পাঁচ": 1866,
    "মেন": 1867,
    "নিৰ্বাচনত": 1868,
    "কৰোনা": 1869,
    "ছাত্ৰ-": 1870,
    "ভোগ": 1871,
    "ৰাইজ": 1872,
    "পৰিয়ালৰ": 1873,
    "সমাজ": 1874,
    "িবলৈ": 1875,
    "স্থানত": 1876,
    "কাৰ্যসূচী": 1877,
    "উপায়ুক্ত": 1878,
    "ঘৰত": 1879,
    "প্ৰচাৰ": 1880,
    "ানা": 1881,
    "শিষ্ট": 1882,
    "কিল": 1883,
    "দেখ": 1884,
    "ৱাৰ": 1885,
    "মাল": 1886,
    "ation": 1887,
    "অঞ্চলত": 1888,
    "দিয়ে": 1889,
    "আনি": 1890,
    "ীৰে": 1891,
    "নম্বৰ": 1892,
    "ভিডি": 1893,
    "য়তে": 1894,
    "টুই": 1895,
    "দত": 1896,
    "ছাৰ": 1897,
    "তেনে": 1898,
    "কেল": 1899,
    "ধৰা": 1900,
    "কাষ": 1901,
    "শত": 1902,
    "কৌ": 1903,
    "বুধবাৰে": 1904,
    "বিৰ": 1905,
    "কোৱা": 1906,
    "পিতৃ": 1907,
    "আম": 1908,
    "ৰ্ঘ": 1909,
    "ভাৰতত": 1910,
    "নোৱাৰ": 1911,
    "ালৈকে": 1912,
    "ালয়ৰ": 1913,
    "চক": 1914,
    "মাজতে": 1915,
    "সামগ্ৰী": 1916,
    "নিৰ্বাচনৰ": 1917,
    "পাৰি": 1918,
    "নিৰ্বাচন": 1919,
    "জনোৱা": 1920,
    "ৱান": 1921,
    "চী": 1922,
    "অধীনত": 1923,
    "পশ্চ": 1924,
    "শিক্ষাৰ্থ": 1925,
    "চিত": 1926,
    "স্কুল": 1927,
    "প্ৰতিযোগ": 1928,
    "সম্ভাৱ": 1929,
    "ইউক্ৰেইনৰ": 1930,
    "নৈ": 1931,
    "হক": 1932,
    "ন্ট": 1933,
    "ফটো": 1934,
    "লৈকে": 1935,
    "ৰ্ণ": 1936,
    "চন্দ্ৰ": 1937,
    "ালো": 1938,
    "তুল": 1939,
    "মূলক": 1940,
    "অনা": 1941,
    "হাতত": 1942,
    "শনিবাৰে": 1943,
    "সত্ৰ": 1944,
    "বাদী": 1945,
    "চৰ্": 1946,
    "বছ": 1947,
    "আক্ৰমণ": 1948,
    "ষ্ণ": 1949,
    "সফল": 1950,
    "পী": 1951,
    "খো": 1952,
    "বৃহস্পতিবাৰে": 1953,
    "সাহিত্য": 1954,
    "পৰিষদৰ": 1955,
    "ভিত্ত": 1956,
    "বাবেই": 1957,
    "ভ্ৰম": 1958,
    "যো": 1959,
    "ুৱে": 1960,
    "দো": 1961,
    "শুকুৰ": 1962,
    "un": 1963,
    "আলি": 1964,
    "২৩": 1965,
    "কন": 1966,
    "ra": 1967,
    "সাংসদ": 1968,
    "ট্ৰা": 1969,
    "নৰে": 1970,
    "কাত": 1971,
    "অঞ্চলৰ": 1972,
    "কৰ্মচাৰী": 1973,
    "বিশিষ্ট": 1974,
    "'ৰ": 1975,
    "The": 1976,
    "জৰিয়তে": 1977,
    "চিন্ত": 1978,
    "কৃষক": 1979,
    "স্ম": 1980,
    "সংগঠন": 1981,
    "২০২২": 1982,
    "ৰাজনৈতিক": 1983,
    "পৰিল": 1984,
    "গৰাকীয়ে": 1985,
    "।ইয়াৰ": 1986,
    "ৃপক্ষ": 1987,
    "খনে": 1988,
    "শইক": 1989,
    "বহ": 1990,
    "ৰাজ্যত": 1991,
    "পশ্চিম": 1992,
    "নিৰা": 1993,
    "বিপৰীতে": 1994,
    "ুষ": 1995,
    "গাঁৱত": 1996,
    "উপৰিও": 1997,
    "দিছে": 1998,
    "ঝাৰ": 1999,
    "বিশ্": 2000,
    "ঘাট": 2001,
    "অপৰা": 2002,
    "ৰাণ": 2003,
    "সংখ্যক": 2004,
    "তৰি": 2005,
    "ইণ্ডি": 2006,
    "পথাৰ": 2007,
    "বৰষ": 2008,
    "হেৰ": 2009,
    "ীয়াকৈ": 2010,
    "সামাজ": 2011,
    "পথৰ": 2012,
    "দেওবাৰে": 2013,
    "ol": 2014,
    "মণ্ড": 2015,
    "তেজ": 2016,
    "নিশ্চিত": 2017,
    "হাজৰি": 2018,
    "শিৱসাগৰ": 2019,
    "ন্তে": 2020,
    "টী": 2021,
    "সোণ": 2022,
    "সামাজিক": 2023,
    "22": 2024,
    "ধে": 2025,
    "সমৰ্থ": 2026,
    "আৱ": 2027,
    "অৰু": 2028,
    "সম্ব": 2029,
    "অৰ": 2030,
    "ষণ": 2031,
    "যাব": 2032,
    "সৰ্ব": 2033,
    "চিনা": 2034,
    "ন্দা": 2035,
    "fir": 2036,
    "সৱ": 2037,
    "্তা": 2038,
    "সদৰ": 2039,
    "দীৰ্ঘ": 2040,
    "বিভাগে": 2041,
    "কান": 2042,
    "যায়": 2043,
    "শৰীৰ": 2044,
    "ফো": 2045,
    "উদযা": 2046,
    "সমাচাৰ/প্ৰকাশ": 2047,
    "কমি": 2048,
    "বাং": 2049,
    "য়ৰ": 2050,
    "টোক": 2051,
    "সন্থ": 2052,
    "সুবিধা": 2053,
    "পেট্ৰ": 2054,
    "এলে": 2055,
    "ালয়ৰ": 2056,
    "প্ৰাণ": 2057,
    "পৰিছে।": 2058,
    "আশা": 2059,
    "বৰপেটা": 2060,
    "om": 2061,
    "অসমত": 2062,
    "ৰে'ল": 2063,
    "গুৰি": 2064,
    "ঘটনাস্থ": 2065,
    "ক,": 2066,
    "মাহ": 2067,
    "হ'লে": 2068,
    "),": 2069,
    "গৰু": 2070,
    "অধীক্ষ": 2071,
    "যোগদান": 2072,
    "বাহী": 2073,
    "কলে": 2074,
    "উঠি": 2075,
    "নামত": 2076,
    "দুয়ো": 2077,
    "post": 2078,
    "ৰং": 2079,
    "গাওঁ": 2080,
    "ক্ৰমে": 2081,
    "নিযুক্তি": 2082,
    "ত্ৰি": 2083,
    "বৰষু": 2084,
    "RT": 2085,
    "কোম্": 2086,
    "প্ৰদেশ": 2087,
    "দক্ষি": 2088,
    "ফাই": 2089,
    "যোৱাৰ": 2090,
    "বৰুৱা": 2091,
    "যোৰ": 2092,
    "য়তে": 2093,
    "মিটাৰ": 2094,
    "স্থানীয়": 2095,
    "তিয়া": 2096,
    "দুজন": 2097,
    "first": 2098,
    "দিনে": 2099,
    "ান্য": 2100,
    "ared": 2101,
    "তাৰি": 2102,
    "নহয়": 2103,
    "বঁ": 2104,
    "In": 2105,
    "(Assames": 2106,
    "আহিছে।": 2107,
    "্ৰু": 2108,
    "পথত": 2109,
    "জাৰি": 2110,
    "HE": 2111,
    "সেনা": 2112,
    "কলা": 2113,
    "জিলাত": 2114,
    "ৰহ": 2115,
    "AST": 2116,
    "ৰক্ষা": 2117,
    "শিল্পী": 2118,
    "সম্ভাৱনা": 2119,
    "পঞ্চা": 2120,
    "মোৰ": 2121,
    "আলী": 2122,
    "টাও": 2123,
    "ান্তৰ": 2124,
    "সমস্য": 2125,
    "appe": 2126,
    "শুকুৰবাৰে": 2127,
    "কঠ": 2128,
    "শ্বৰ": 2129,
    "প্ৰভাৱ": 2130,
    "পাছতে": 2131,
    "জৰিয়তে": 2132,
    "বিদ্যুত": 2133,
    "দিবলৈ": 2134,
    "আনন্দ": 2135,
    "আঁচনি": 2136,
    "appeared": 2137,
    "NORT": 2138,
    "সঞ্চালক": 2139,
    "বিচ": 2140,
    "বাগি": 2141,
    "NORTHE": 2142,
    "NORTHEAST": 2143,
    "e).": 2144,
    "NOW": 2145,
    "(Assamese).": 2146,
    "জানুৱাৰ": 2147,
    "কৰ্তৃপক্ষ": 2148,
    "উজ": 2149,
    "অন্যান্য": 2150,
    "ডু": 2151,
    "লক": 2152,
    "ড়া": 2153,
    "ডিব": 2154,
    "চোৰাং": 2155,
    "ংস": 2156,
    "সংযোগ": 2157,
    "জনায়": 2158,
    "আগত": 2159,
    "মন্দি": 2160,
    "ষ্টাৰ": 2161,
    "গী": 2162,
    "গুৱাহাটীৰ": 2163,
    "প্তা": 2164,
    "থমিক": 2165,
    "পৰৱৰ্তী": 2166,
    "মেৰি": 2167,
    "ীয়াৰ": 2168,
    "উদ্দেশ": 2169,
    "তেন্তে": 2170,
    "অপ": 2171,
    "োধন": 2172,
    "বৈধ": 2173,
    "প্ৰশ্ন": 2174,
    "দিনটো": 2175,
    "খণ্ড": 2176,
    "ডিব্ৰু": 2177,
    "গাৰ": 2178,
    "বিষয়ে": 2179,
    "শীৰ্ষ": 2180,
    "খিনি": 2181,
    "যোৰহাট": 2182,
    "ন্থ": 2183,
    "ট্": 2184,
    "বেশ": 2185,
    "বীৰ": 2186,
    "সংগ্ৰহ": 2187,
    "/আলোক": 2188,
    "ঘাই": 2189,
    "মৰি": 2190,
    "কৰী": 2191,
    "খোৱা": 2192,
    "জাতি": 2193,
    "সামৰিক": 2194,
    "অভিন": 2195,
    "ri": 2196,
    "কিস্ত": 2197,
    "সন্দেহ": 2198,
    "জ্যে": 2199,
    "ওলাই": 2200,
    "দাম": 2201,
    "টিক": 2202,
    "বেছি": 2203,
    "কাৰৰ": 2204,
    "শালী": 2205,
    "গান্": 2206,
    "শ্ৰমিক": 2207,
    "গুণ": 2208,
    "সীমান্ত": 2209,
    "ঠিক": 2210,
    "কৈছিল": 2211,
    "গুলী": 2212,
    "বহি": 2213,
    "৪০": 2214,
    "কেইটা": 2215,
    "প্ৰতিক্ৰি": 2216,
    "ষে": 2217,
    "দুয়ো": 2218,
    "দলটোৱে": 2219,
    "ডিব্ৰুগড়": 2220,
    "বৰ্ষৰ": 2221,
    "২৬": 2222,
    "১,": 2223,
    "নেতৃত্বত": 2224,
    "প্ৰাথমিক": 2225,
    "ডাঙৰ": 2226,
    "নিগ": 2227,
    "হীন": 2228,
    "পিনে": 2229,
    "্রী": 2230,
    "সময়তে": 2231,
    "(C": 2232,
    "স্বী": 2233,
    "ধৰ্ম": 2234,
    "সহায়": 2235,
    "গাড়ী": 2236,
    "আটাই": 2237,
    "গুৰুতৰ": 2238,
    "ূপে": 2239,
    "ব্ৰহ": 2240,
    "পৰাই": 2241,
    "দুল": 2242,
    "বদ্ধ": 2243,
    "ভিডিঅ'": 2244,
    "দক্ষিণ": 2245,
    "এৰি": 2246,
    "হৰি": 2247,
    "দ্বিতীয়": 2248,
    "পুৰত": 2249,
    "মহিল": 2250,
    "বৰাই": 2251,
    "য়াক": 2252,
    "নেল": 2253,
    "থানাত": 2254,
    "জুৰি": 2255,
    "খেতি": 2256,
    "বিচাৰ": 2257,
    "প্ৰশিক্ষ": 2258,
    "বিজ্ঞান": 2259,
    "ফলা": 2260,
    "সন্মান": 2261,
    "পত্তি": 2262,
    "ণ্টাৰ": 2263,
    "কাক": 2264,
    "সল": 2265,
    "পাৰা": 2266,
    "এটি": 2267,
    "কেনে": 2268,
    "ch": 2269,
    "সেয়ে": 2270,
    "সৰু": 2271,
    "।\"": 2272,
    "যুৱতী": 2273,
    "মাহৰ": 2274,
    "্ন": 2275,
    "নিৰাপত": 2276,
    "পাব": 2277,
    "নদ": 2278,
    "উন্নত": 2279,
    "মঙলবাৰে": 2280,
    "কিলো": 2281,
    "ৰিক্ত": 2282,
    "পৰিয়াল": 2283,
    "ভিত্তিত": 2284,
    "।সেই": 2285,
    "সুস্থ": 2286,
    "অতিৰিক্ত": 2287,
    "জুন": 2288,
    ")ৰ": 2289,
    "জাতীয়": 2290,
    "২০০": 2291,
    "নল": 2292,
    "et": 2293,
    "বাসী": 2294,
    "নৰেন্দ্ৰ": 2295,
    "দৃ": 2296,
    "উদ্যোগত": 2297,
    "ক্ষণ": 2298,
    "আন্তঃ": 2299,
    "ত্যাগ": 2300,
    "লোৱাৰ": 2301,
    "পাৰিব": 2302,
    "সমূহত": 2303,
    "পৰিস্থিতিৰ": 2304,
    "প্ৰতিষ্ঠ": 2305,
    "ৰখা": 2306,
    "উত্‍পাদ": 2307,
    "ut": 2308,
    "দায়িত্ব": 2309,
    "দিনা": 2310,
    "প্ৰয়োজন": 2311,
    "নিৰ্বাচনী": 2312,
    "নিত": 2313,
    "ালয়ত": 2314,
    "শীল": 2315,
    "বঁটা": 2316,
    "পত্নী": 2317,
    "পৰীক্ষাৰ": 2318,
    "সাংবাদিক": 2319,
    "তৃত": 2320,
    "অভ": 2321,
    "প্ৰত্যা": 2322,
    "আঘাত": 2323,
    "চিৰ": 2324,
    "বিষয়": 2325,
    "উদযাপন": 2326,
    "বিক্ৰী": 2327,
    "কঠোৰ": 2328,
    "োত্‍": 2329,
    "সন্ধি": 2330,
    "মাৰ্": 2331,
    "ৰাজহুৱা": 2332,
    "পদক্ষেপ": 2333,
    "জনাইছে": 2334,
    "ঞ্চল": 2335,
    "সমাধান": 2336,
    "কেইবাটাও": 2337,
    "অধীক্ষক": 2338,
    "ীয়াই": 2339,
    "পৰিকল্প": 2340,
    "মাধ্যমৰ": 2341,
    "প্ৰৱেশ": 2342,
    "কিয়": 2343,
    "di": 2344,
    "চ্ছা": 2345,
    "হব": 2346,
    "ীতি": 2347,
    "পেন": 2348,
    "ফৰ": 2349,
    "টেল": 2350,
    "বাঢ়ি": 2351,
    "িষ": 2352,
    "ুষ্ঠান": 2353,
    "মল": 2354,
    "উলি": 2355,
    "(P": 2356,
    "সাব্যস্ত": 2357,
    "ন্যায়": 2358,
    "আইন": 2359,
    "ধাৰা": 2360,
    "বিধায়ক": 2361,
    "সংগঠ": 2362,
    "সেয়া": 2363,
    "বিত্ত": 2364,
    "বান্": 2365,
    "প্ৰতিনি": 2366,
    "ধুৰ": 2367,
    "ব্যাপক": 2368,
    "দখল": 2369,
    "চিনাক্ত": 2370,
    "উই": 2371,
    "দিলে": 2372,
    "মুৰ": 2373,
    "ঘূ": 2374,
    "যাত্ৰা": 2375,
    "মহন্ত": 2376,
    "তালি": 2377,
    "দিনত": 2378,
    "পাকিস্ত": 2379,
    "অবৈধ": 2380,
    "যোগান": 2381,
    "তিহা": 2382,
    "কাৰ্বি": 2383,
    "ৰঙা": 2384,
    "প্ৰক্ৰি": 2385,
    "ৃণ": 2386,
    "োৱাল": 2387,
    "ফুল": 2388,
    "ব্যৱসায়": 2389,
    "খাই": 2390,
    "(S": 2391,
    "ওচৰত": 2392,
    "বিবাহ": 2393,
    "ন্য": 2394,
    "২৮": 2395,
    "ay": 2396,
    "গ্র": 2397,
    "্ৰে": 2398,
    "৬০": 2399,
    "বড়ো": 2400,
    "কন্যা": 2401,
    "দিৱস": 2402,
    "মানৰ": 2403,
    "পৰাম": 2404,
    "ক'ভিড": 2405,
    "আৰো": 2406,
    "বৃত": 2407,
    "আগতে": 2408,
    "ৰূপা": 2409,
    "us": 2410,
    "ভু": 2411,
    "বাংলা": 2412,
    "উচিত": 2413,
    "িলি": 2414,
    "ঙে": 2415,
    "সংঘ": 2416,
    "জ্যেষ্ঠ": 2417,
    "ভয়": 2418,
    "শৰ্মাৰ": 2419,
    "গোষ্ঠ": 2420,
    "হুছে": 2421,
    "খণ্ডৰ": 2422,
    "পল": 2423,
    "দণ্ড": 2424,
    "সৰবৰাহকাৰী": 2425,
    "উপলক্ষে": 2426,
    "২৭": 2427,
    "স্ফ": 2428,
    "বিদ্যালয়ৰ": 2429,
    "Assam": 2430,
    "নাছিল": 2431,
    "উপ-": 2432,
    "ক্র": 2433,
    "ভাগ্য": 2434,
    "সলনি": 2435,
    "ah": 2436,
    "জ্ঞাপন": 2437,
    "।তাৰ": 2438,
    "্যাৰ": 2439,
    "অৰুণা": 2440,
    "িকো": 2441,
    "পৰামৰ্শ": 2442,
    "আধাৰ": 2443,
    "ছাই": 2444,
    "সাহা": 2445,
    "ত্ব": 2446,
    "মুখ্যমন্ত্ৰীৰ": 2447,
    "ব্ৰহ্ম": 2448,
    "আমেৰি": 2449,
    "ড০": 2450,
    "বেগ": 2451,
    "দেউ": 2452,
    "ছাত্ৰ-ছাত্ৰী": 2453,
    "োধ": 2454,
    "স্পষ্ট": 2455,
    "মাটি": 2456,
    "পৰিৱৰ্ত": 2457,
    "বিকাশ": 2458,
    "ব্যক্ত": 2459,
    "প্ৰদেশৰ": 2460,
    "সুৰক্ষা": 2461,
    "যাতে": 2462,
    "এজা": 2463,
    "a)": 2464,
    "প্ৰয়োজন": 2465,
    "মৃত্যুৰ": 2466,
    "ম্বাই": 2467,
    "দুৰ": 2468,
    "ঙ্গ": 2469,
    "গঠন": 2470,
    "নীত": 2471,
    "মানুহৰ": 2472,
    "বন্দ": 2473,
    "হাৰৰ": 2474,
    "শান্তি": 2475,
    "পুৰুষ": 2476,
    "শাল": 2477,
    "ৰোধ": 2478,
    "ন্যায়": 2479,
    "কৃতি": 2480,
    "শক্তিশালী": 2481,
    "কাজি": 2482,
    "চলচ্চ": 2483,
    "উদ্ব": 2484,
    "মুক্তি": 2485,
    "পৰ্যন্ত": 2486,
    "পোৱাৰ": 2487,
    "ন।": 2488,
    "ন্ত্ৰণ": 2489,
    "সন্থাৰ": 2490,
    "পোহৰ": 2491,
    "ig": 2492,
    "কোন": 2493,
    "পৰিয়ালৰ": 2494,
    "দেখি": 2495,
    "ভিতৰ": 2496,
    "ৰমেন": 2497,
    "সচি": 2498,
    "গ্ৰস্ত": 2499,
    "কাৰ্য্য": 2500,
    "যুঁ": 2501,
    "পণ": 2502,
    "২০২১": 2503,
    "জোৱ": 2504,
    "গোলা": 2505,
    "ov": 2506,
    "এইটো": 2507,
    "সন্মুখীন": 2508,
    "সপ্তা": 2509,
    "শীঘ": 2510,
    "মাহত": 2511,
    "এনেদৰে": 2512,
    "লাগিব।": 2513,
    "গৌৰ": 2514,
    "উভ": 2515,
    "লখি": 2516,
    "ডিজে": 2517,
    "চলচ্চিত্ৰ": 2518,
    "মুক্ত": 2519,
    "সন্ত্ৰাস": 2520,
    "im": 2521,
    "কোকৰা": 2522,
    "সাক্ষ": 2523,
    "দিছে।": 2524,
    "কোভিড": 2525,
    "মুম্বাই": 2526,
    "নু": 2527,
    "যোগা": 2528,
    "পাইছে": 2529,
    "বাছ": 2530,
    "res": 2531,
    "মানি": 2532,
    "/আলোক.": 2533,
    "ইফালে": 2534,
    "জিৰ": 2535,
    "দিয়াৰ": 2536,
    "পর": 2537,
    "প্ৰত্য": 2538,
    "ইং": 2539,
    "ul": 2540,
    "অসমীয়া": 2541,
    "আগবঢ়াই": 2542,
    "ab": 2543,
    "দ্বিতীয়": 2544,
    "বাতৰি": 2545,
    "বালি": 2546,
    "পলা": 2547,
    "সেনাৰ": 2548,
    "স্কৃতিক": 2549,
    "ছল": 2550,
    "অহাৰ": 2551,
    "lo": 2552,
    "ুৱৈ": 2553,
    "শিক্ষাৰ্থী": 2554,
    "বিলা": 2555,
    "অৱস্থা": 2556,
    "হুল": 2557,
    "আহমে": 2558,
    "বস্ত": 2559,
    "মাজুল": 2560,
    "বাজে": 2561,
    "আয়": 2562,
    "তাক": 2563,
    "গীত": 2564,
    "ঞ্চলিক": 2565,
    "কাৰীৰ": 2566,
    "প্ৰমাণ": 2567,
    "ৰাল": 2568,
    "২৯": 2569,
    "প্ৰস্তুত": 2570,
    "নেত্ৰী": 2571,
    "য়ান": 2572,
    "।ইতিমধ্যে": 2573,
    "বিধানসভা": 2574,
    "ব্যক্তিগত": 2575,
    "ৰাজী": 2576,
    "তাই": 2577,
    "প্ৰতিষ্ঠান": 2578,
    "iv": 2579,
    "মে'": 2580,
    "স্বাম": 2581,
    "সময়তে": 2582,
    "বোৰৰ": 2583,
    "থাকে।": 2584,
    "জিত্‍": 2585,
    "(M": 2586,
    "দিল্লী": 2587,
    "বিন্দ": 2588,
    "কুমা": 2589,
    "যাত্ৰী": 2590,
    "পৰিমাণ": 2591,
    "বিশ্বাস": 2592,
    "ইছলাম": 2593,
    "পাইছে।": 2594,
    "জুই": 2595,
    "জাগ": 2596,
    "হাস্": 2597,
    "মেল": 2598,
    "সদৰি": 2599,
    "কুৱা": 2600,
    "্মীৰ": 2601,
    "বলে": 2602,
    "জিলাখনৰ": 2603,
    "ওক": 2604,
    "০০০": 2605,
    "য়োগ": 2606,
    "প্ৰদৰ্শন": 2607,
    "মাধ্যমিক": 2608,
    "অত্যা": 2609,
    "বাহিনীৰ": 2610,
    "ভ্ৰমণ": 2611,
    "চাকৰি": 2612,
    "ঘটনাস্থলীত": 2613,
    "ম্প": 2614,
    "ৰাছিয়াৰ": 2615,
    "কামৰূপ": 2616,
    "কিছুমান": 2617,
    "বোকা": 2618,
    "সাত": 2619,
    "ৰাত": 2620,
    "আৰক্ষীক": 2621,
    "ধুবুৰ": 2622,
    "ৰুজু": 2623,
    "ৰঙি": 2624,
    "আদাল": 2625,
    "সম্প্ৰ": 2626,
    "য'ত": 2627,
    "ীয়াকৈ": 2628,
    "আঁচনিৰ": 2629,
    "বৈঠকত": 2630,
    "বিদ্যুত্‍": 2631,
    "সম্পৰ্": 2632,
    "পৰিব": 2633,
    "দিছিল": 2634,
    "পূৰ্ব": 2635,
    "চিকিত্‍সালয়": 2636,
    "পালে": 2637,
    "।যাৰ": 2638,
    "িকভাৱে": 2639,
    "য্য": 2640,
    "মিন": 2641,
    "পালি": 2642,
    "ট্ৰে": 2643,
    "অঞ্চলটোৰ": 2644,
    "ৰাজ্যখনৰ": 2645,
    "আনকি": 2646,
    "কলিয়া": 2647,
    "ীপ": 2648,
    "মিডি": 2649,
    "সুযোগ": 2650,
    "দশ": 2651,
    "খেলুৱৈ": 2652,
    "th": 2653,
    "লগীয়া": 2654,
    "কিশোৰ/মনোজ": 2655,
    "ৱাৰ্ডত": 2656,
    "লখিম": 2657,
    "গৰি": 2658,
    "বছৰীয়া": 2659,
    "মক": 2660,
    "ালোচনা": 2661,
    "বক্ত": 2662,
    "প্ৰকল্প": 2663,
    "অল": 2664,
    "যায়": 2665,
    "সাংস্কৃতিক": 2666,
    "বাৰ্": 2667,
    "কালি": 2668,
    "প্ৰশিক্ষণ": 2669,
    "গৃহত": 2670,
    "কাণ্ডৰ": 2671,
    "বহুতো": 2672,
    "হস্ত": 2673,
    "কাশ্মীৰ": 2674,
    "১০০": 2675,
    "আবেদন": 2676,
    "মূৰ": 2677,
    "উন্নয়ন": 2678,
    "চুৰি": 2679,
    "ction": 2680,
    "পুলি": 2681,
    "বিনা": 2682,
    "প্ৰথ": 2683,
    "্বা": 2684,
    "।আৰু": 2685,
    "পেলাই": 2686,
    "ভাঙি": 2687,
    "সকলোৱে": 2688,
    "সম্প্ৰতি": 2689,
    "কক": 2690,
    "কবি": 2691,
    "ak": 2692,
    "মহকুমা": 2693,
    "মৌ": 2694,
    "সেৱ": 2695,
    "নিৰ্মাণৰ": 2696,
    "সহায়": 2697,
    "পঞ্জা": 2698,
    "অৱগত": 2699,
    "হাঁ": 2700,
    "সংৰ": 2701,
    "ল'ব": 2702,
    "বং": 2703,
    "কলিয়াবৰ": 2704,
    "শ্ৰেণ": 2705,
    "প্ৰিয়": 2706,
    "েৰে": 2707,
    "হল": 2708,
    "আয়োজন": 2709,
    "প্ৰশাসনে": 2710,
    "কয়,": 2711,
    "ুক": 2712,
    "বয়": 2713,
    "আঞ্চলিক": 2714,
    "od": 2715,
    "মিত্ৰ": 2716,
    "হোৱাত": 2717,
    "প্ৰস্তা": 2718,
    "সীমা": 2719,
    "আং": 2720,
    "লিটাৰ": 2721,
    "তৃণ": 2722,
    "নিম": 2723,
    "বিৰোধ": 2724,
    "চত": 2725,
    "টেই": 2726,
    "মোড": 2727,
    "কোকৰাঝাৰ": 2728,
    "যিকো": 2729,
    "নাক": 2730,
    "ছত": 2731,
    "মৰ্": 2732,
    "প্লে": 2733,
    "কার": 2734,
    "যিকোনো": 2735,
    "সক্ৰি": 2736,
    "ালয়ে": 2737,
    "চিকিত্‍সাৰ": 2738,
    "শ্ৰুতি": 2739,
    "এক্স": 2740,
    "বিস্ফ": 2741,
    "ইয়াক": 2742,
    "ণ্ডে": 2743,
    "খান": 2744,
    "নিৰ্ম": 2745,
    "সন্মুখত": 2746,
    "নগ": 2747,
    "বিস্ফোৰ": 2748,
    "আহিছিল": 2749,
    "সন্তান": 2750,
    "ter": 2751,
    "বট": 2752,
    "করে": 2753,
    "প্ৰতিটো": 2754,
    "ব্ধ": 2755,
    "ষি": 2756,
    "অস্ত্ৰ": 2757,
    "গৈছিল": 2758,
    "কাৰা": 2759,
    "পাতি": 2760,
    "দূৰ": 2761,
    "ফ্": 2762,
    "সমস্যাৰ": 2763,
    "নিজে": 2764,
    "টিং": 2765,
    "হাস্পত": 2766,
    "কৰক": 2767,
    "কাৰে": 2768,
    "পৰিলক্ষিত": 2769,
    "শেহতীয়াকৈ": 2770,
    "উঠ": 2771,
    "কাঠ": 2772,
    "উৰি": 2773,
    "নম্বৰৰ": 2774,
    "সন্মিল": 2775,
    "স্বামী": 2776,
    "নাছিল।": 2777,
    "তেল": 2778,
    "(B": 2779,
    "নোৱ": 2780,
    "।আজি": 2781,
    "ধৰ্ষ": 2782,
    "el": 2783,
    "মুখ্যমন্ত্ৰীয়ে": 2784,
    "সম্পন্ন": 2785,
    "ভাত": 2786,
    "ভাষণ": 2787,
    "টিত": 2788,
    "বঙ": 2789,
    "নেকি": 2790,
    "মন্ত্রী": 2791,
    "ফোন": 2792,
    "ন্দোল": 2793,
    "আহে": 2794,
    "সংস্থা": 2795,
    "সহযোগত": 2796,
    "৮০": 2797,
    "অভিনেতা": 2798,
    "জনগোষ্ঠ": 2799,
    "কঢ়ি": 2800,
    "কিয়": 2801,
    "ভাইৰেল": 2802,
    "ভৱিষ": 2803,
    "পদৰ": 2804,
    "ঘৰলৈ": 2805,
    "উপস্থিতি": 2806,
    "ice": 2807,
    "নাৰা": 2808,
    "চৌহ": 2809,
    "২,": 2810,
    "।এ": 2811,
    "ড৹": 2812,
    "ভৱিষ্য": 2813,
    "বিশ্বৰ": 2814,
    "আগবঢ়া": 2815,
    "তেওঁলোকক": 2816,
    "পতা": 2817,
    "লাল": 2818,
    "আন্দোল": 2819,
    "ist": 2820,
    "বৃদ্ধিৰ": 2821,
    "প্ৰতিনিধি": 2822,
    "মুল": 2823,
    "উল": 2824,
    "ক্লা": 2825,
    "ৱি": 2826,
    "বানৰ": 2827,
    "ওৱা": 2828,
    "বিদ": 2829,
    "দীপ": 2830,
    "নতুনকৈ": 2831,
    "em": 2832,
    "মঞ্চ": 2833,
    "বিশেষকৈ": 2834,
    "প্ৰেছ": 2835,
    "গ্ৰী": 2836,
    "ন্দ্": 2837,
    "পৰিকল্পনা": 2838,
    "ৰাখিছে": 2839,
    "মানৱ": 2840,
    "ৰোগীৰ": 2841,
    "চলিত": 2842,
    "গোপন": 2843,
    "হʼ": 2844,
    "চলোৱা": 2845,
    "ব্ব": 2846,
    "কয়,": 2847,
    "যোগাযোগ": 2848,
    "অধ্যা": 2849,
    "বনা": 2850,
    "ফলাফল": 2851,
    "স্বৰ": 2852,
    "est": 2853,
    "শোধ": 2854,
    "কল্": 2855,
    "শতাধিক": 2856,
    "বয়": 2857,
    "প্ৰথমে": 2858,
    "মেঘ": 2859,
    "নাৰ্": 2860,
    "মাজে": 2861,
    "চালক": 2862,
    "ৰোগী": 2863,
    "ers": 2864,
    "পেট্ৰ'ল": 2865,
    "বাহৰ": 2866,
    "মতি": 2867,
    "তাল": 2868,
    "খনো": 2869,
    "চোৰ": 2870,
    "বুকি": 2871,
    "আটাইতকৈ": 2872,
    "অৰ্থাত্‍": 2873,
    "ডাঃ": 2874,
    "কৰাটো": 2875,
    "দাসে": 2876,
    "পোন": 2877,
    "বাঢ়": 2878,
    "গছৰ": 2879,
    "।অৱশ্যে": 2880,
    "বিধ": 2881,
    "য়ণ": 2882,
    "বজ": 2883,
    "অভিযানত": 2884,
    "হ'বলৈ": 2885,
    "প্ৰধানমন্ত্ৰ": 2886,
    "সাৱ": 2887,
    "চিন্তা": 2888,
    "2022": 2889,
    "বুল": 2890,
    "জীৱনৰ": 2891,
    "দিল্লীৰ": 2892,
    "ho": 2893,
    "পৰিমাণৰ": 2894,
    "মানুহে": 2895,
    "লিখি": 2896,
    "য়েল": 2897,
    "পোহৰলৈ": 2898,
    "মহাবিদ্যালয়": 2899,
    "সঁ": 2900,
    "দৌ": 2901,
    "নগাঁৱৰ": 2902,
    "উপায়": 2903,
    "দ্ৰা": 2904,
    "অপৰাধ": 2905,
    "চৌধুৰ": 2906,
    "মৰা": 2907,
    "মানসিক": 2908,
    "হোজাই": 2909,
    "ম'": 2910,
    "সোণৰ": 2911,
    "মাছ": 2912,
    "।অ": 2913,
    "গুৱাহাটী,": 2914,
    "বজাৰত": 2915,
    "যাত্ৰ": 2916,
    "হʼব": 2917,
    "ুৰী": 2918,
    "কৰে,": 2919,
    "৩৫": 2920,
    "ছেদ": 2921,
    "চাৰ্": 2922,
    "গুৰু": 2923,
    "তত্‍": 2924,
    "আপ": 2925,
    "আৱদ্ধ": 2926,
    "ৰাখিব": 2927,
    "ভাৰপ্ৰাপ্ত": 2928,
    "মহিলাৰ": 2929,
    "সেয়ে": 2930,
    "তন": 2931,
    "ড°": 2932,
    "নিৰ্দেশনা": 2933,
    "নিৰ্বাচিত": 2934,
    "ন্স": 2935,
    "বিনে": 2936,
    "য়াৰে": 2937,
    "একো": 2938,
    "যৌ": 2939,
    "অতিক্ৰম": 2940,
    "ক্ষী": 2941,
    "প্ৰসা": 2942,
    "৭০": 2943,
    "সাহায্য": 2944,
    "পৰিচালনা": 2945,
    "আজ": 2946,
    "গৱে": 2947,
    "অনুৰা": 2948,
    "োঁ": 2949,
    "ৰাহুল": 2950,
    "জৰা": 2951,
    "অঞ্চলটোত": 2952,
    "অন্তত": 2953,
    "তিনিটা": 2954,
    "।ইপিনে": 2955,
    "মাধ্যমত": 2956,
    "পনৰ": 2957,
    "ক্ষো": 2958,
    "দিনটোত": 2959,
    "ce": 2960,
    "প্ৰতিশ্ৰুতি": 2961,
    "স্তি": 2962,
    "সমূহে": 2963,
    "অৱশেষ": 2964,
    "ওৰ": 2965,
    "অভিনেত্ৰী": 2966,
    "মানুহ": 2967,
    "ৱাৰ্ডৰ": 2968,
    "লাইন": 2969,
    "ট্ৰাক": 2970,
    "চৰকাৰক": 2971,
    "নদীৰ": 2972,
    "গান": 2973,
    "সৌ": 2974,
    "মদ": 2975,
    "সামগ্ৰীৰ": 2976,
    "পৰম্": 2977,
    "শংকৰ": 2978,
    "নাগৰিক": 2979,
    "পৰিদৰ্শন": 2980,
    "বিয়": 2981,
    "জত": 2982,
    "ৰাতি": 2983,
    "৭৫": 2984,
    "মাৰী": 2985,
    "লেন": 2986,
    "এফৰ": 2987,
    "৪,": 2988,
    "ম্বৰ": 2989,
    "স্কৰ": 2990,
    "অৱশেষত": 2991,
    "জোৱান": 2992,
    "স্থাৰ": 2993,
    "দোকান": 2994,
    "দৃষ্টি": 2995,
    "উত্তৰ-": 2996,
    "ফেব্ৰুৱাৰী": 2997,
    "অৰুণাচল": 2998,
    "বছৰে": 2999,
    "কোম্পানী": 3000,
    "নোৱাৰে": 3001,
    "এইদৰে": 3002,
    "লক্ষণ": 3003,
    "বাধ্য": 3004,
    "য়নৰ": 3005,
    "ণ্ডাৰ": 3006,
    "হ’": 3007,
    "প্ৰশং": 3008,
    "ant": 3009,
    "পই": 3010,
    "দুখন": 3011,
    "অতিথি": 3012,
    "সচিব": 3013,
    "অক্": 3014,
    "ব্ৰহ্মপুত্ৰ": 3015,
    "ঙত": 3016,
    "১.": 3017,
    "ডেস্ক": 3018,
    "বদ": 3019,
    "for": 3020,
    "ব্যৱসায়ী": 3021,
    "পিছতো": 3022,
    "বৰাৰ": 3023,
    "সজাগ": 3024,
    "ৃতি": 3025,
    "কাৰ্যবাহী": 3026,
    "মৰণ": 3027,
    "পৰীক্ষাত": 3028,
    "pur": 3029,
    "গ'ল": 3030,
    "ঔষ": 3031,
    "এজাহাৰ": 3032,
    "হৃ": 3033,
    "কেইজন": 3034,
    "তাৰিখে": 3035,
    "নাট": 3036,
    "দাল": 3037,
    "সৰ্বা": 3038,
    "য়ান": 3039,
    "ধীশ": 3040,
    "ফুট": 3041,
    "গঠ": 3042,
    "গঢ়ি": 3043,
    "গৈছিল।": 3044,
    "স্বীকাৰ": 3045,
    "বিটি": 3046,
    "দিয়ে।": 3047,
    "বাইল": 3048,
    "19": 3049,
    "প্ৰশাসনৰ": 3050,
    "টাত": 3051,
    "লয়": 3052,
    "বিচাৰে": 3053,
    "টন": 3054,
    "ঠিকা": 3055,
    "নেও": 3056,
    "তাৰে": 3057,
    "উদ্দেশ্য": 3058,
    "ত্তৰ": 3059,
    "আহিব": 3060,
    "ভাবুকি": 3061,
    "বছৰীয়া": 3062,
    "বাসি": 3063,
    "৩১": 3064,
    "বিশ্বনাথ": 3065,
    "ঘে": 3066,
    "আঁত": 3067,
    "আগবাঢ়ি": 3068,
    "(T": 3069,
    "দলটোৰ": 3070,
    "প্ৰকৃত": 3071,
    "কৰণৰ": 3072,
    "পৌৰসভাৰ": 3073,
    "পৰিয়াল": 3074,
    "গতিকে": 3075,
    "দৃশ্য": 3076,
    "ফ্ৰ": 3077,
    "কুল": 3078,
    "প্ৰত্যক্ষ": 3079,
    "ৰক্ত": 3080,
    "প্ৰস্তাৱ": 3081,
    "বাধা": 3082,
    "কৈছে": 3083,
    "ভয়ংকৰ": 3084,
    "প্ৰতিযোগিতা": 3085,
    "প্ৰতিবাদী": 3086,
    "লাগে।": 3087,
    "পুৰণি": 3088,
    "অনুৰ": 3089,
    "কাৰ্যকৰী": 3090,
    "বাকী": 3091,
    "(R": 3092,
    "ফাৰ": 3093,
    "আদালত": 3094,
    "ষা": 3095,
    "মন্ত্ৰীগৰাকীয়ে": 3096,
    "হৰণ": 3097,
    "দত্ত": 3098,
    "hi": 3099,
    "বিল": 3100,
    "ৰখাৰ": 3101,
    "আদৰ": 3102,
    "বত": 3103,
    "থাকিব।": 3104,
    "য়েই": 3105,
    "পানীত": 3106,
    "খ্যাত": 3107,
    "যেন": 3108,
    "অৱসৰ": 3109,
    "বিজয়": 3110,
    "খেলি": 3111,
    "সকলোৰে": 3112,
    "বাতি": 3113,
    "ছাত": 3114,
    "টুইট": 3115,
    "চৰাই": 3116,
    "গুজৰা": 3117,
    "সম্পৰ্কে": 3118,
    "পৰে।": 3119,
    "দৰা": 3120,
    "লাগি": 3121,
    "কিলোমিটাৰ": 3122,
    "এতিয়াও": 3123,
    "পাট": 3124,
    "হুছেইন": 3125,
    "সাজু": 3126,
    "জ্বল": 3127,
    "আৰ্থ": 3128,
    "চহৰৰ": 3129,
    "প্ৰৱ": 3130,
    "ক্টৰ": 3131,
    "বঙাই": 3132,
    "কেবিনে": 3133,
    "সাক্ষাত্‍": 3134,
    "নৃত": 3135,
    "সংস্কৃ": 3136,
    "বিহুৰ": 3137,
    "জনাইছে।": 3138,
    "ভূঞ": 3139,
    "সমী": 3140,
    "ভিতৰতে": 3141,
    "তাঁ": 3142,
    "বলি": 3143,
    "চকু": 3144,
    "সংগীত": 3145,
    "অনুষ্ঠানৰ": 3146,
    "বসু": 3147,
    "ৰ্ধ": 3148,
    "ru": 3149,
    "।আনহাতে,": 3150,
    "আছে,": 3151,
    "পৰিষদ": 3152,
    "ৰাজনীতি": 3153,
    "দায়িত্ব": 3154,
    "নিজকে": 3155,
    "ভিডৰ": 3156,
    "তৃণমূল": 3157,
    "র্থ": 3158,
    "পিছত,": 3159,
    "লৈছে": 3160,
    "নিগমৰ": 3161,
    "হাইস্কুল": 3162,
    "ang": 3163,
    "..": 3164,
    "স্খল": 3165,
    "ন্দন": 3166,
    "উভতি": 3167,
    "প্ৰতিবেদন": 3168,
    "বিৰত": 3169,
    "মিশ্ৰ": 3170,
    "অসামৰিক": 3171,
    "ঙা": 3172,
    "দিছিল।": 3173,
    "অভাৱ": 3174,
    "মাৰ্চত": 3175,
    "ম্পি": 3176,
    "তৈ": 3177,
    "আসন": 3178,
    "ঞ্জন": 3179,
    "কৃষ্ণ": 3180,
    "সঠিক": 3181,
    "চিকিত্‍সক": 3182,
    "00": 3183,
    "।উল্লেখযোগ্য": 3184,
    "পতাকা": 3185,
    "চাঞ্চল": 3186,
    "পৃথ": 3187,
    "উচ্": 3188,
    "কেশ": 3189,
    "উত্‍পাদন": 3190,
    "ভক্ত": 3191,
    "শোক": 3192,
    "শ্ৰেণীৰ": 3193,
    "ডেস্ক,": 3194,
    "আকৰ্": 3195,
    "ডেকা": 3196,
    "মুছল": 3197,
    "কণ": 3198,
    "পৰাৰ": 3199,
    "নিৰাপত্তা": 3200,
    "তদু": 3201,
    "অনুভৱ": 3202,
    "দের": 3203,
    "যেতিয়া": 3204,
    "ভূপেন": 3205,
    "কেন্দ্ৰৰ": 3206,
    "বিতৰণ": 3207,
    "দিশ": 3208,
    "দ্ধা": 3209,
    "দীৰ্ঘদিন": 3210,
    "স্থানৰ": 3211,
    "উদ্বোধন": 3212,
    "দলং": 3213,
    "গগৈয়ে": 3214,
    "কলিত": 3215,
    "হেৰুৱাই": 3216,
    "উদ্যান": 3217,
    "মহাৰা": 3218,
    "পূৰণ": 3219,
    "কৰোৱা": 3220,
    "প্রতি": 3221,
    "আগৰ": 3222,
    "বৰপেটাৰ": 3223,
    "ন্তুক": 3224,
    "চুক": 3225,
    "বৰষুণৰ": 3226,
    "সমৰ্থন": 3227,
    "ডাৰ": 3228,
    "ভুক্ত": 3229,
    "বৰ্ষত": 3230,
    "াত্ম": 3231,
    "যন্ত্ৰ": 3232,
    "পৰম্পৰা": 3233,
    "ৰাশি:": 3234,
    "ৰাইজক": 3235,
    "আচৰ": 3236,
    "(D": 3237,
    "২০২০": 3238,
    "চুক্তি": 3239,
    "ভাইৰা": 3240,
    "আশ্ৰ": 3241,
    "৩,": 3242,
    "সমান্ত": 3243,
    "ছোৱাত": 3244,
    "মিনি": 3245,
    "প্রা": 3246,
    "প্ৰসাদ": 3247,
    "চৰ্চা": 3248,
    "বিস্ত": 3249,
    "পাহাৰ": 3250,
    "um": 3251,
    "ৱিন্দ": 3252,
    "বিবে": 3253,
    "বলত": 3254,
    "তদুপৰি": 3255,
    "অৰৱিন্দ": 3256,
    "হাল": 3257,
    "বাৰীৰ": 3258,
    "দিৱসৰ": 3259,
    "আগন্তুক": 3260,
    "নেৰে": 3261,
    "সমান্তৰাল": 3262,
    "ভাষা": 3263,
    "যায়।": 3264,
    "হত্যাৰ": 3265,
    "অন্যতম": 3266,
    "আব্": 3267,
    "পথাৰত": 3268,
    "প্ৰণ": 3269,
    "শ্বি": 3270,
    "এতিয়": 3271,
    "টাকৈ": 3272,
    "মাক": 3273,
    "/ৰমেন": 3274,
    "লোকসকলৰ": 3275,
    "বাসিন্দা": 3276,
    "।ম": 3277,
    "কিমান": 3278,
    "মহোত্‍": 3279,
    "ৰাজ্যখনত": 3280,
    "অগ": 3281,
    "সংঘৰ্ষ": 3282,
    "ানী": 3283,
    "নিয়ম": 3284,
    "ডিমা": 3285,
    "কল্যা": 3286,
    "সমাচাৰ/প্ৰকাশ/মনোজ": 3287,
    "উত্‍সৱ": 3288,
    "শ্ৰেষ্ঠ": 3289,
    "গান্ধী": 3290,
    "কংগ্ৰেছে": 3291,
    "ঠাইত": 3292,
    "ha": 3293,
    "পাত্ৰ": 3294,
    "সদৌ": 3295,
    "দোষ": 3296,
    "সম্ভৱ": 3297,
    "পৰিচ": 3298,
    "চিত্ৰ": 3299,
    "ীৰ্ণ": 3300,
    "শৈ": 3301,
    "উট": 3302,
    "ধ্বংস": 3303,
    "বিজয়": 3304,
    "পশু": 3305,
    "আৰোগ": 3306,
    "কনি": 3307,
    "হাৰি": 3308,
    "অধিকাৰ": 3309,
    "৯০": 3310,
    "অথ": 3311,
    "ঁৱৰ": 3312,
    "সুন্দৰ": 3313,
    "মুহ": 3314,
    "োৱালী": 3315,
    "উচ্চতৰ": 3316,
    "চিকিত্‍সাধীন": 3317,
    "ঢ়া": 3318,
    "কথ": 3319,
    "ম্বৰত": 3320,
    "কান্": 3321,
    "যাদ": 3322,
    "ভৰি": 3323,
    "সতৰ্ক": 3324,
    "নিউ": 3325,
    "বঞ্চ": 3326,
    "ৰাজধান": 3327,
    "ধৃত": 3328,
    "পূৰ্বৰ": 3329,
    "নিল": 3330,
    "জাতীয়": 3331,
    "আৰ্": 3332,
    "আগষ্ট": 3333,
    "ভূমিস্খল": 3334,
    "ফালৰ": 3335,
    "ভগ": 3336,
    "আনুষ্ঠান": 3337,
    "কৌশ": 3338,
    "ক্ষাৰ": 3339,
    "চিন": 3340,
    "বৰ্ণ": 3341,
    "দুৰ্ঘটনাত": 3342,
    "নির্": 3343,
    "অৰবিন্দ": 3344,
    "কৰিম": 3345,
    "গ্ৰহণৰ": 3346,
    "সুখ": 3347,
    "পুৰ,": 3348,
    "নিয়ম": 3349,
    "ণে": 3350,
    "ment": 3351,
    "অৰ্জন": 3352,
    "ভোটাৰ": 3353,
    "মাৰি": 3354,
    "ইমান": 3355,
    "বছৰত": 3356,
    "পৃথি": 3357,
    "ac": 3358,
    "গুৱাহাটীত": 3359,
    "মহানগৰীৰ": 3360,
    "লোকসকলে": 3361,
    "পুখ": 3362,
    "ক্ষতিগ্ৰস্ত": 3363,
    "কলিতা": 3364,
    "িকা": 3365,
    "।জানিব": 3366,
    "ক্ষমতা": 3367,
    "তৰফৰ": 3368,
    "উপায়ুক্ত": 3369,
    "পৃথিৱ": 3370,
    "তিনিজন": 3371,
    "ত্র": 3372,
    "হিন্দ": 3373,
    "যায়।": 3374,
    "দিশত": 3375,
    "সৰ্বাধিক": 3376,
    "বোৰে": 3377,
    "প্ৰকল্": 3378,
    "দেশী": 3379,
    "বাক": 3380,
    "ঘু": 3381,
    "কাৰ্যসূচীত": 3382,
    "ঞ্চলৰ": 3383,
    "চিকিত্‍সালয়": 3384,
    "মছ": 3385,
    "মানে": 3386,
    "ূৰ": 3387,
    "দাব": 3388,
    "ডলাৰ": 3389,
    "দলীয়": 3390,
    "পঞ্জ": 3391,
    "ত্ৰী": 3392,
    "দৈনিক": 3393,
    "উন্মো": 3394,
    "ইউক্ৰেইন": 3395,
    "কেইবাখনো": 3396,
    "জুৰ": 3397,
    "িতা/মনোজ": 3398,
    "।গুৱাহাটী,": 3399,
    "পূজা": 3400,
    "আদালতে": 3401,
    "সমু": 3402,
    "লেং": 3403,
    "হয়,": 3404,
    "aga": 3405,
    "শাৰী": 3406,
    "আৰোপ": 3407,
    "তিত": 3408,
    "বৰুৱাই": 3409,
    "বাহিনী": 3410,
    "s)": 3411,
    "i)": 3412,
    "৩৭": 3413,
    "স্বাস্থ্যৰ": 3414,
    "কাপ": 3415,
    "দুৰ্বৃত": 3416,
    "মতাৰ": 3417,
    "এদিন": 3418,
    "প্ৰস্তুতি": 3419,
    "য়েল": 3420,
    "আৰম্ভণি": 3421,
    "পুঁ": 3422,
    "জনতা": 3423,
    "এতিয়াও": 3424,
    "শাসক": 3425,
    "৪৫": 3426,
    "মিলি": 3427,
    "কাৰণে": 3428,
    "এপ্ৰিলত": 3429,
    "দ্দিন": 3430,
    "শংকা": 3431,
    "দৰি": 3432,
    "মন্দিৰ": 3433,
    "ম,": 3434,
    "পিছতেই": 3435,
    "হাজৰিকা": 3436,
    "অনুৰোধ": 3437,
    "তলত": 3438,
    "সমালোচনা": 3439,
    "অখিল": 3440,
    "তদন্তৰ": 3441,
    "চৰিত্ৰ": 3442,
    "চিহ": 3443,
    "নৈতিক": 3444,
    "ডিজি": 3445,
    "আলফা": 3446,
    "সকলোকে": 3447,
    "প্ৰতিক্ৰিয়া": 3448,
    "পৰ্": 3449,
    "স্মৃতি": 3450,
    "ডকাই": 3451,
    "মহাবিদ্যালয়ৰ": 3452,
    "বুজ": 3453,
    "ভাৰতে": 3454,
    "ৰোগৰ": 3455,
    "প্ৰশংসা": 3456,
    "সেয়েহে": 3457,
    "পৰিবেশ": 3458,
    "ভাগত": 3459,
    "প্ৰান্ত": 3460,
    "বেংক": 3461,
    "একেলগে": 3462,
    "প্ৰতিদ্ব": 3463,
    "ভুল": 3464,
    "কৰ্তৃপক্ষই": 3465,
    "ot": 3466,
    "গৱেষ": 3467,
    "দুৱাৰ": 3468,
    "মেডি": 3469,
    "পৌৰসভা": 3470,
    "বলী": 3471,
    "গ্ৰন্থ": 3472,
    "প্ৰতিযোগিত": 3473,
    "ৰূপে": 3474,
    "ঠাকুৰ": 3475,
    "শ্বেয়াৰ": 3476,
    "ৃং": 3477,
    "মান্য": 3478,
    "।যি": 3479,
    "বাট": 3480,
    "ণ্ডা": 3481,
    "বৰ্তমানৰ": 3482,
    "ঘটি": 3483,
    ".৫": 3484,
    "লিত": 3485,
    "এয়া": 3486,
    "কোৰো": 3487,
    "ধেমা": 3488,
    "সম্পদ": 3489,
    "ছ'": 3490,
    "আদৰ্শ": 3491,
    "বিজেপিয়ে": 3492,
    "থৈ": 3493,
    "আক্ৰমণৰ": 3494,
    "থানা": 3495,
    "বন্য": 3496,
    "আনহাতে,": 3497,
    "সংঘৰ": 3498,
    "সম্পত্তি": 3499,
    "ৰ্য": 3500,
    "বিশেষজ্ঞ": 3501,
    "কণ্": 3502,
    "con": 3503,
    "অভিযানৰ": 3504,
    "কৰ্কট": 3505,
    "টুইটাৰ": 3506,
    "ষিদ্ধ": 3507,
    "):": 3508,
    "সৱৰ": 3509,
    "শুভাৰ": 3510,
    "অন্তৰ্ভ": 3511,
    "সুৰক্ষিত": 3512,
    "দাসৰ": 3513,
    "শাসিত": 3514,
    "নিষিদ্ধ": 3515,
    "ব্ৰা": 3516,
    "সংক্ৰমণ": 3517,
    "চাৰ্য": 3518,
    "ক্তা": 3519,
    "বিন": 3520,
    "প্ৰতিষ্ঠা": 3521,
    "ঘল": 3522,
    "অভিভাৱ": 3523,
    "থাক": 3524,
    "কৰ্মৰ": 3525,
    "ধুবুৰী": 3526,
    "মনত": 3527,
    "বোকাখাত": 3528,
    "আংলং": 3529,
    "নামি": 3530,
    "দিল্লীত": 3531,
    "ভূমিকা": 3532,
    "কাটি": 3533,
    "গভ": 3534,
    "ৱহ": 3535,
    "কৰে।এই": 3536,
    "।অসম": 3537,
    "up": 3538,
    "শিশ": 3539,
    "আৰোগ্য": 3540,
    "জুনত": 3541,
    "বৰ্গ": 3542,
    "ৰাখিছে।": 3543,
    "দৰিদ্ৰ": 3544,
    "ালয়ে": 3545,
    "নৃত্য": 3546,
    "চতু": 3547,
    "শুভাৰম্ভ": 3548,
    "বিধায়": 3549,
    "বৈঠক": 3550,
    "কীৰ": 3551,
    "উচ্চতম": 3552,
    "লেন্দু": 3553,
    "পোষ্ট": 3554,
    "বাইক": 3555,
    "মিছ": 3556,
    "প্লা": 3557,
    "এতিয়ালৈকে": 3558,
    "আদিৰ": 3559,
    "ক্ৰে": 3560,
    "গোৱাল": 3561,
    "শপত": 3562,
    "শ্বাস": 3563,
    "স্কাৰ": 3564,
    "য়ী": 3565,
    "(F": 3566,
    "com": 3567,
    "বানত": 3568,
    "জনো": 3569,
    "জানুৱাৰী": 3570,
    "লেণ্ড": 3571,
    "ইয়াত": 3572,
    "মাৰা": 3573,
    "অলপ": 3574,
    "ক্ষু": 3575,
    "অন্তিম": 3576,
    "হৈছে,": 3577,
    "ঘটনাত": 3578,
    "নোহোৱা": 3579,
    "তিনিচুক": 3580,
    "্য়": 3581,
    "পাৰ্ট": 3582,
    "জয়ন্ত": 3583,
    "বাতিল": 3584,
    "সাহ": 3585,
    "মাৰে": 3586,
    "বহুত": 3587,
    "স্বাভাৱ": 3588,
    "পূব": 3589,
    "অনুসন্ধান": 3590,
    "হৈছে।এই": 3591,
    "শীঘ্ৰে": 3592,
    "চেতন": 3593,
    "ডিজেলৰ": 3594,
    "বায়": 3595,
    "নিয়া": 3596,
    ",০০০": 3597,
    "কাৰ্যালয়": 3598,
    "দহ": 3599,
    "হাতী": 3600,
    "(N": 3601,
    "মেলত": 3602,
    "কালত": 3603,
    "এনকা": 3604,
    "উচ্ছেদ": 3605,
    "আকাশ": 3606,
    "আগবঢ়োৱা": 3607,
    "সঞ্জ": 3608,
    "দিষ্ট": 3609,
    "চাইকেল": 3610,
    "বিনিম": 3611,
    "ৰাও": 3612,
    "উন্নয়ন": 3613,
    "বসুমতাৰ": 3614,
    "মতা": 3615,
    "আহমেদ": 3616,
    "নিৰ্মলেন্দু": 3617,
    "নিং": 3618,
    "ীয়াই": 3619,
    "মে'ত": 3620,
    "সংক্ৰমণৰ": 3621,
    "মন্ত্ৰণ": 3622,
    "পেলা": 3623,
    "নদী": 3624,
    "লিৰ": 3625,
    "তেখে": 3626,
    "কাৰ্ড": 3627,
    "প্ৰিয়": 3628,
    "ছাত্ৰীৰ": 3629,
    "শুন": 3630,
    "স্বাধীন": 3631,
    "পিছে": 3632,
    "ীয়ে।": 3633,
    "গৌৰৱ": 3634,
    "খনি": 3635,
    "ভয়": 3636,
    "ল্ল": 3637,
    "আকৌ": 3638,
    "উঠিছে": 3639,
    "উইকেট": 3640,
    "সমাজৰ": 3641,
    "মটৰ": 3642,
    "উপলব্ধ": 3643,
    "ছবিখন": 3644,
    "তৃতীয়": 3645,
    "শাস্তি": 3646,
    "গণত": 3647,
    "চুল": 3648,
    "বব": 3649,
    "হয়ে": 3650,
    "ধন্য": 3651,
    "মৈ": 3652,
    "ত,": 3653,
    "ষ্টিত": 3654,
    "আৰ্থিক": 3655,
    "ট্টা": 3656,
    "গ্ৰাহক": 3657,
    "সম্বৰ্ধ": 3658,
    "ৰাজধানী": 3659,
    "সমাচাৰ/নিৰ্মলেন্দু": 3660,
    "কল্যাণ": 3661,
    "the": 3662,
    "মোদী": 3663,
    "বটদ্ৰ": 3664,
    "বিতৰ্ক": 3665,
    "ঘটনাটো": 3666,
    "ক্ৰীড়া": 3667,
    "বক্তব্য": 3668,
    "wit": 3669,
    "কিশোৰী": 3670,
    "পঢ়কঃ": 3671,
    "ঁড়": 3672,
    "lection": 3673,
    "মোহন": 3674,
    "োৱাই": 3675,
    "লতা": 3676,
    "ধনৰ": 3677,
    "ধাৰণৰ": 3678,
    "তোলে": 3679,
    "আদৰণি": 3680,
    "ধিকাৰ": 3681,
    "ঐতিহা": 3682,
    "ঐতিহাসিক": 3683,
    "ফৰ্": 3684,
    "ব্যক্তিৰ": 3685,
    "গোলাঘাট": 3686,
    "ধৰণ": 3687,
    "শৃং": 3688,
    "জমা": 3689,
    "ন্দ্র": 3690,
    "অধিনা": 3691,
    "সুৰা": 3692,
    "ঘন্ট": 3693,
    "মৃতদেহটো": 3694,
    "যুট": 3695,
    "ই।": 3696,
    "ভূত": 3697,
    "অন্তৰ্ভুক্ত": 3698,
    "শ্ৰীলং": 3699,
    "কিং": 3700,
    "সিঙে": 3701,
    "নৈৰ": 3702,
    "নিয়ন্ত্ৰণ": 3703,
    "বাণি": 3704,
    "আইনৰ": 3705,
    "অনুমতি": 3706,
    "একমাত্ৰ": 3707,
    "সংগঠনৰ": 3708,
    "বাণিজ্য": 3709,
    "নীতিৰ": 3710,
    "বিধি": 3711,
    "জাতিৰ": 3712,
    "।সেয়ে": 3713,
    "মাজেৰে": 3714,
    "একেদৰে": 3715,
    "বিপদ": 3716,
    "পৰিদৰ্শ": 3717,
    "বার": 3718,
    "কাকৰণ": 3719,
    "মহাৰাষ্ট্ৰ": 3720,
    "কেন্দ্ৰত": 3721,
    "একাউ": 3722,
    "খহন": 3723,
    "নিয়োগ": 3724,
    "ৰাছিয়াৰ": 3725,
    "কাজ": 3726,
    "গৌ": 3727,
    "ছবিখনৰ": 3728,
    "।বৰ্তমান": 3729,
    "ছোৱালী": 3730,
    "মুৰব্ব": 3731,
    "ভোটদান": 3732,
    "21": 3733,
    "ঘণ্ট": 3734,
    "সজাগতা": 3735,
    "টিভি": 3736,
    "।বিগত": 3737,
    "যুদ্ধৰ": 3738,
    "সোনক": 3739,
    "টিল": 3740,
    "মালি": 3741,
    "সোনকালে": 3742,
    "ৰহস্য": 3743,
    "৪.": 3744,
    "বাসীৰ": 3745,
    "অধ্যাপক": 3746,
    "স্বাভাৱিক": 3747,
    "ছুৰ": 3748,
    "se": 3749,
    "ন-": 3750,
    "্তাৰ": 3751,
    "গভীৰ": 3752,
    "চূ": 3753,
    "দ্ৰুত": 3754,
    "প্ৰান্তৰ": 3755,
    "স্তা": 3756,
    "শইকীয়া": 3757,
    "(G": 3758,
    "জনপ্ৰিয়": 3759,
    "সম্বৰ্ধনা": 3760,
    "মথা": 3761,
    "বৰষুণ": 3762,
    "প্ৰচ": 3763,
    "নহয়,": 3764,
    "জিম্": 3765,
    "প্ৰথমবাৰৰ": 3766,
    "ঘটনাই": 3767,
    "ঢকুৱা": 3768,
    "নকৰা": 3769,
    "অমিত": 3770,
    "বৰদ": 3771,
    "অৱশ্যে,": 3772,
    "পন্থ": 3773,
    "বুঢ়া": 3774,
    "উপস্থিতিত": 3775,
    "উপাৰ্": 3776,
    "জাল": 3777,
    "নিষে": 3778,
    "যাতা": 3779,
    "অধিৱেশ": 3780,
    "বতৰ": 3781,
    "সংকট": 3782,
    "সংগতি": 3783,
    "দুদিন": 3784,
    "ভংগ": 3785,
    "হলে": 3786,
    "মুৰ্": 3787,
    "বাহনৰ": 3788,
    "ত্ৰিপু": 3789,
    "কাৰ্যসূচীৰ": 3790,
    "নগদ": 3791,
    "ঞ্চন": 3792,
    "ধেমাজি": 3793,
    "লোকসকলক": 3794,
    "প্ৰকল্পৰ": 3795,
    "har": 3796,
    "তৃতীয়": 3797,
    "নিম্": 3798,
    "উত্তোল": 3799,
    "ণৰূপে": 3800,
    "নীল": 3801,
    "pro": 3802,
    "দীঘল": 3803,
    "মুখত": 3804,
    "এইচ": 3805,
    "সফলতা": 3806,
    "৮.": 3807,
    "মুনা": 3808,
    "'ৰ্": 3809,
    "প্ৰযুক্তি": 3810,
    "সন্ধানহীন": 3811,
    "গৃহৰ": 3812,
    "হাৰত": 3813,
    "উত্তীৰ্ণ": 3814,
    "aj": 3815,
    "নিৰু": 3816,
    "শিক্ষান": 3817,
    "াত্মক": 3818,
    "স্বাধী": 3819,
    "পট": 3820,
    "নহয়।": 3821,
    "কামত": 3822,
    "কৰাই": 3823,
    "ৰূপত": 3824,
    "ৰাজ্যসভাৰ": 3825,
    "চেন্": 3826,
    "গান্ধ": 3827,
    "গুলীচাল": 3828,
    "মুখী": 3829,
    "পাছতো": 3830,
    "আদালতত": 3831,
    "কেতিয়া": 3832,
    "মণ্ডল": 3833,
    "ইতিহা": 3834,
    "বঞ্চিত": 3835,
    "কৰক।": 3836,
    "ভৱনত": 3837,
    "কাৰ্যালয়": 3838,
    "।এনে": 3839,
    "সম্পূৰ্": 3840,
    "স্বাৰ্থ": 3841,
    "।বি": 3842,
    "দাবীত": 3843,
    "এতিয়": 3844,
    "ন্তা": 3845,
    "হৃদ": 3846,
    "সংক্ৰমিত": 3847,
    "বুজি": 3848,
    "ভেক": 3849,
    "জুলাইত": 3850,
    "ণ্টা": 3851,
    "পুটি": 3852,
    "বাল": 3853,
    "দুপৰ": 3854,
    "ডিচে": 3855,
    "আশংকা": 3856,
    "সক্ৰিয়": 3857,
    "ড্ৰ": 3858,
    "তালিকা": 3859,
    "শৰীৰৰ": 3860,
    "অভিযোগত": 3861,
    "ফেব্ৰুৱাৰীত": 3862,
    "এপ": 3863,
    "ছোঁ": 3864,
    "তেওঁলোক": 3865,
    "বিদ্যালয়ত": 3866,
    "প্ল": 3867,
    "উত্তে": 3868,
    "গুৰুতৰভাৱে": 3869,
    "সহকাৰী": 3870,
    "আক্ৰান্তৰ": 3871,
    "আমেৰিকা": 3872,
    "শুভে": 3873,
    "ধন্যবাদ": 3874,
    "ৰাভা": 3875,
    "চনাৰ": 3876,
    "বাজেট": 3877,
    "নালা": 3878,
    "আহিছিল।": 3879,
    "ক্ষোভ": 3880,
    "জাতিক": 3881,
    "রি": 3882,
    "জোৰা": 3883,
    "বঙাইগাঁও": 3884,
    "অথবা": 3885,
    "ident": 3886,
    "প্টে": 3887,
    "কূ": 3888,
    "অৰ্থনৈতিক": 3889,
    "ডিং": 3890,
    "৬,": 3891,
    "স্মাৰ": 3892,
    "বিশাল": 3893,
    "অভিজ্ঞ": 3894,
    "তালা": 3895,
    "বন্ধু": 3896,
    "।'": 3897,
    "দাস,": 3898,
    "মেৰে": 3899,
    "পুন": 3900,
    "মৃ": 3901,
    "টেষ্ট": 3902,
    "নহয়,": 3903,
    "য়োজিত": 3904,
    "দেখিবলৈ": 3905,
    "ঘন্টাত": 3906,
    "যোগী": 3907,
    "চক্ৰৰ": 3908,
    "ঠে": 3909,
    "প্ৰতিবাদকাৰী": 3910,
    "বৰাক": 3911,
    "২.": 3912,
    "দুখ": 3913,
    "তেতি": 3914,
    "কৰে।হিন্দুস্থান": 3915,
    "কেতিয়া": 3916,
    "কটা": 3917,
    "শ্বহী": 3918,
    "য়ণ": 3919,
    "অগ্ৰ": 3920,
    "ব্ৰি": 3921,
    "ব্ৰে": 3922,
    "খলা": 3923,
    "অভিয": 3924,
    "বাহিন": 3925,
    "ইছলা": 3926,
    "ৱাই": 3927,
    "প্ৰয়োজনীয়": 3928,
    "লখিমপুৰ": 3929,
    "ধৰ্ষণ": 3930,
    "পিক": 3931,
    "ুদ্ধ": 3932,
    "গাৰ্": 3933,
    "মজি": 3934,
    "বিবৃ": 3935,
    "পুৱ": 3936,
    "মহাবিদ্যালয়": 3937,
    "y)": 3938,
    "ল'বলৈ": 3939,
    "শিলচৰ": 3940,
    "কেইবাজনো": 3941,
    "লাভৰ": 3942,
    "তলা": 3943,
    "প্ৰাৰ্থীৰ": 3944,
    "য়াক": 3945,
    "জাহ": 3946,
    "আব্দুল": 3947,
    "চিয়েল": 3948,
    "ia": 3949,
    "মোবাইল": 3950,
    "সম্পূৰ্ণৰূপে": 3951,
    "তাত্‍": 3952,
    "ক্ৰয়": 3953,
    "আঠ": 3954,
    "হিতা": 3955,
    "আৱে": 3956,
    "ভুক্তভোগ": 3957,
    "ে।": 3958,
    "কাৰি": 3959,
    "হ'বলগীয়া": 3960,
    "de": 3961,
    "পদত্যাগ": 3962,
    "মুখে": 3963,
    "ধিকাৰী": 3964,
    "বাদৰ": 3965,
    "ছে,": 3966,
    "ate": 3967,
    "চিকিত্‍সালয়ত": 3968,
    "যাবলৈ": 3969,
    "ণ্টি": 3970,
    "২০১৯": 3971,
    "সেয়া": 3972,
    "প্ৰদানৰ": 3973,
    "৩৮": 3974,
    "উন": 3975,
    "গগৈৰ": 3976,
    "জগত": 3977,
    "ৰান": 3978,
    "এবাৰ": 3979,
    "জাননী": 3980,
    "আঘাতপ্ৰাপ্ত": 3981,
    "ভোটগ্ৰহণ": 3982,
    "পৰিবহ": 3983,
    "শিশুৰ": 3984,
    "মুৰব্বী": 3985,
    "ৰাখে": 3986,
    "কিয়নো": 3987,
    "কিছুদিন": 3988,
    "শিক্ষাৰ": 3989,
    "জোঁ": 3990,
    "উৰ্": 3991,
    "ভুৱা": 3992,
    "মাজৰ": 3993,
    "উত্থাপিত": 3994,
    "৪৮": 3995,
    "Indi": 3996,
    "মেডিকেল": 3997,
    "গঁড়": 3998,
    "াৰ্ট": 3999,
    "আকৰ্ষণ": 4000,
    "কিয়নো": 4001,
    "অনুমোদ": 4002,
    "our": 4003,
    "শ্ৰদ্ধা": 4004,
    "গাঞ্জা": 4005,
    "৯৯": 4006,
    "হাজ": 4007,
    "পূৰ্বা": 4008,
    "প্ৰেম": 4009,
    "ধুমু": 4010,
    "(H": 4011,
    "শৰীৰত": 4012,
    "পৰ্যায়ৰ": 4013,
    "তেলৰ": 4014,
    "ঘণ্টা": 4015,
    "ক্ৰিকেট": 4016,
    "অক্টো": 4017,
    "ডো": 4018,
    "মাৰীৰ": 4019,
    "ড্ৰাগছৰ": 4020,
    "সম্পৰ্কত": 4021,
    "মাতৃৰ": 4022,
    "ক্ৰিকে": 4023,
    "নিজা": 4024,
    "প্ৰতিৰোধ": 4025,
    "টছ": 4026,
    "নহয়।": 4027,
    "দৰং": 4028,
    "ইল": 4029,
    "স্বত": 4030,
    "খোৱাৰ": 4031,
    "কেলেং": 4032,
    "য়নৰ": 4033,
    "্যোগ": 4034,
    "ইউক্ৰেইনত": 4035,
    "োত্তৰ": 4036,
    "স্বৰূপে": 4037,
    "সীমান্তৰ": 4038,
    "বিয়লি": 4039,
    "কৰা,": 4040,
    "মহম্": 4041,
    "৫,": 4042,
    "সংসদ": 4043,
    "উত্তাল": 4044,
    "টকা।": 4045,
    "বৰদলৈ": 4046,
    "ওজন": 4047,
    "ক্ষৰ": 4048,
    "আয়োজন": 4049,
    "মুখৰ": 4050,
    "'লৰ": 4051,
    "শেহতীয়াকৈ": 4052,
    "নাও": 4053,
    "বেলি": 4054,
    "কান্ত": 4055,
    "বাবেও": 4056,
    "বলীউ": 4057,
    "বিধ্ব": 4058,
    "।আমি": 4059,
    "18": 4060,
    "শুভেচ্ছা": 4061,
    "মুছলমান": 4062,
    "চতুৰ্থ": 4063,
    "ড়ি": 4064,
    "অক্টোবৰ": 4065,
    "৭,": 4066,
    "ঘাইপথ": 4067,
    "সহযোগিতা": 4068,
    "সময়ৰ": 4069,
    "দুগৰাকী": 4070,
    "দুৰ্নীতি": 4071,
    "বায়": 4072,
    "ড়ান্ত": 4073,
    "ওৰফে": 4074,
    "খোজ": 4075,
    "কাষত": 4076,
    "lood": 4077,
    "নগৰৰ": 4078,
    "জীৱনত": 4079,
    "বিনামূল": 4080,
    "প্ৰতিদিনে": 4081,
    "অফ": 4082,
    "তত্‍পৰ": 4083,
    "করা": 4084,
    "থেকে": 4085,
    "পুল": 4086,
    "্যন্ত": 4087,
    "ৰ'": 4088,
    "ম্বন": 4089,
    "প্ৰত্যাহ": 4090,
    "পদ্ধ": 4091,
    "এচ": 4092,
    "কলেজ": 4093,
    "কাৰ্যালয়ৰ": 4094,
    "ধৰে": 4095,
    "উন্মোচন": 4096,
    "oun": 4097,
    "শ্বা": 4098,
    "্তিক": 4099,
    "অব": 4100,
    "ষ্কাৰ": 4101,
    "সাধাৰণৰ": 4102,
    "চীন": 4103,
    "মোদীয়ে": 4104,
    "হতা": 4105,
    "সেৱাৰ": 4106,
    "সমষ্টিত": 4107,
    "বাংলাদেশ": 4108,
    "ূৰ্ত": 4109,
    "নিষেধা": 4110,
    "চ্ছ": 4111,
    "সচেতন": 4112,
    "কলকা": 4113,
    "বিয়": 4114,
    "তুলিছে": 4115,
    "ill": 4116,
    "কৰিবলগীয়া": 4117,
    "হাজৰিকাই": 4118,
    "জৈ": 4119,
    "যুৱক-": 4120,
    "কৰ্মৰত": 4121,
    "নথি": 4122,
    "পাব।": 4123,
    "জাৰ্": 4124,
    "অলি": 4125,
    "বিধানসভাৰ": 4126,
    "উদ্দেশ্যে": 4127,
    "টীয়": 4128,
    "শিলা": 4129,
    "জনায়।": 4130,
    "চুবুৰ": 4131,
    "চাং": 4132,
    "৩৬": 4133,
    "পদক": 4134,
    "আন্তঃৰাষ্ট্ৰীয়": 4135,
    "মনৰ": 4136,
    "চোৱা": 4137,
    "-ৰ": 4138,
    "সন্ধিয়া": 4139,
    "েশ": 4140,
    "নিৰাপত্তাৰ": 4141,
    "কিবা": 4142,
    "ডত": 4143,
    "শ্বহীদ": 4144,
    "ভয়া": 4145,
    "পাকিস্তানৰ": 4146,
    "চিলি": 4147,
    "শাৰীৰিক": 4148,
    "সমাচাৰ/নিৰ্মলেন্দু/মনোজ": 4149,
    "কৃতিক": 4150,
    "পিন্": 4151,
    "নিয়া": 4152,
    "ram": 4153,
    "।আপুনি": 4154,
    "কাৰো": 4155,
    "যত": 4156,
    "যুৱকৰ": 4157,
    "ফিক": 4158,
    "বোৰত": 4159,
    "ঘূৰি": 4160,
    "কাহ": 4161,
    "ঔষধ": 4162,
    "সংবাদমেল": 4163,
    "বাৰীত": 4164,
    "বাঁ": 4165,
    "গ্ন": 4166,
    "নিৰ্দিষ্ট": 4167,
    "।এইবাৰ": 4168,
    "গোস্বাম": 4169,
    "ণিত": 4170,
    "সমাপ্ত": 4171,
    "কৰ্মচাৰীৰ": 4172,
    "উৰ": 4173,
    "অগ্নিকাণ্ড": 4174,
    "মিকৰ": 4175,
    "ঘটনাক": 4176,
    "শিবিৰ": 4177,
    "ঋণ": 4178,
    "এলেকাত": 4179,
    "ভাতৃ": 4180,
    "চাপ": 4181,
    "ong": 4182,
    "অধিব": 4183,
    "ক্সা": 4184,
    "কপ": 4185,
    "ণ্টৰ": 4186,
    "-২০": 4187,
    "৩৪": 4188,
    "জেৰা": 4189,
    "যেনে": 4190,
    "নকৰিলে": 4191,
    "চান": 4192,
    "ew": 4193,
    "চমু": 4194,
    "সমূহক": 4195,
    "নিয়ন্ত্ৰণ": 4196,
    "োপৰি": 4197,
    "10": 4198,
    "কেইখন": 4199,
    "লিটাৰত": 4200,
    "ৰাখিবলৈ": 4201,
    "ৱাল": 4202,
    "ুণ": 4203,
    "সময়ৰ": 4204,
    "স্মাৰক": 4205,
    "ংগা": 4206,
    "ৰঙালী": 4207,
    "কেত": 4208,
    "চিনে": 4209,
    "মথাউৰি": 4210,
    "নলবাৰী": 4211,
    "কমে": 4212,
    "শ্ৰম": 4213,
    "।আৰক্ষীয়ে": 4214,
    "দেশিক": 4215,
    "ঢকুৱাখ": 4216,
    "ডিজিটেল": 4217,
    "23": 4218,
    "ফিল": 4219,
    "।উক্ত": 4220,
    "তত": 4221,
    "বিক": 4222,
    "তামুল": 4223,
    "সন্ত্ৰাসবাদী": 4224,
    "উপযুক্ত": 4225,
    "সঞ্": 4226,
    "তাপ": 4227,
    "ঘণ্টাত": 4228,
    "।ফলত": 4229,
    "কৃত্ৰ": 4230,
    "ীয়াৰ": 4231,
    "জগ": 4232,
    "কেনেকৈ": 4233,
    "বিষয়াৰ": 4234,
    "কৃত্ৰিম": 4235,
    "কাৰ্যালয়ত": 4236,
    "বেল": 4237,
    "ফুক": 4238,
    "ht": 4239,
    "লিষ্ট": 4240,
    "খেদি": 4241,
    "নালাগে": 4242,
    "ন্দে": 4243,
    "ৰহমান": 4244,
    "শব্দ": 4245,
    "গ'": 4246,
    "নিশ": 4247,
    "চুপাৰ": 4248,
    "মৰণোত্তৰ": 4249,
    "ud": 4250,
    "কামনা": 4251,
    "স্কু": 4252,
    "নাৰী": 4253,
    "ডঃ": 4254,
    "মালিক": 4255,
    "গণ্য": 4256,
    "চাম": 4257,
    "পূৰ": 4258,
    "ঘাটৰ": 4259,
    "ম্য": 4260,
    "ছেপ্টে": 4261,
    "বিষ্ণ": 4262,
    "সন্ধিয়া": 4263,
    "সমন্": 4264,
    "যুৱকজনৰ": 4265,
    "ass": 4266,
    "পৰিছিল": 4267,
    "দাঙি": 4268,
    "ঘটনা।": 4269,
    "অনুৰাগী": 4270,
    "বাহিৰ": 4271,
    "পৰিমাণে": 4272,
    "াক্ৰান্ত": 4273,
    "ংকাৰ": 4274,
    "তথ্যৰ": 4275,
    "সম্বোধন": 4276,
    "গোচৰত": 4277,
    "ধ্যা": 4278,
    "কলিতাই": 4279,
    "চলতে": 4280,
    "কঠি": 4281,
    "বিভাগীয়": 4282,
    "শাখাৰ": 4283,
    "সাধন": 4284,
    "নিৰ্ভৰ": 4285,
    "সংক": 4286,
    "জনসাধাৰণৰ": 4287,
    "সূত্ৰৰ": 4288,
    "ন্তৰ": 4289,
    "টেলি": 4290,
    "গৰাখ": 4291,
    "দেখুৱাই": 4292,
    "সত্য": 4293,
    "পাঠ্য": 4294,
    "JP": 4295,
    "যুৱকে": 4296,
    "খনক": 4297,
    "দিয়ে।": 4298,
    "গৰাখহন": 4299,
    "আয়োগ": 4300,
    "ahat": 4301,
    "৫০০": 4302,
    "বিশ্ববিদ্যালয়ৰ": 4303,
    "পৰিপ্ৰে": 4304,
    "অৰৱিন্দ/মনোজ": 4305,
    "inst": 4306,
    "গঞ্জ": 4307,
    "মাটিৰ": 4308,
    "চিহ্ন": 4309,
    "বিষয়টো": 4310,
    "য়াম": 4311,
    "সাঁ": 4312,
    "প্ৰক্ৰিয়া": 4313,
    "ইউনি": 4314,
    "জানুৱাৰীত": 4315,
    "কাহি": 4316,
    "ক্ৰয়": 4317,
    "জম্": 4318,
    "ক্ষিক": 4319,
    "পাছতেই": 4320,
    "শৰ্মা,": 4321,
    "তেজপুৰ": 4322,
    "গঢ়": 4323,
    "ষিক": 4324,
    "সেউজ": 4325,
    "পৰিপ্ৰেক্ষিত": 4326,
    "বংশ": 4327,
    "op": 4328,
    "কণ্ঠ": 4329,
    "।যোৱা": 4330,
    "প্ৰতী": 4331,
    "মনি": 4332,
    "নিচা": 4333,
    "নাগৰি": 4334,
    "বকো": 4335,
    "কর্ম": 4336,
    "খানে": 4337,
    "ৰাৰ": 4338,
    "দিশে": 4339,
    "ক'লা": 4340,
    "যুঁজ": 4341,
    "দেহত": 4342,
    "ঞ্জলি": 4343,
    "uw": 4344,
    "থাকিলে": 4345,
    "নিষ্ঠ": 4346,
    "শস্য": 4347,
    "বাঘ": 4348,
    "খালী": 4349,
    "সত্ৰৰ": 4350,
    "der": 4351,
    "কামা": 4352,
    "মুহূৰ্ত": 4353,
    "জনাৰ": 4354,
    "জনায়": 4355,
    "বাস্ত": 4356,
    "সাংবাদিকৰ": 4357,
    "গোচৰৰ": 4358,
    "inist": 4359,
    "ণাৰ": 4360,
    "ন্যায়া": 4361,
    "শোণিত": 4362,
    "মহন্তই": 4363,
    "চৌহদত": 4364,
    "বৰা,": 4365,
    "গতিত": 4366,
    "গৰ্ভ": 4367,
    "ঁতে": 4368,
    "uwahat": 4369,
    "ন্ধন": 4370,
    "সর": 4371,
    "মুখপাত্ৰ": 4372,
    "ভ্ৰমণৰ": 4373,
    "গণনা": 4374,
    "দুৰ্যোগ": 4375,
    "য়তৰ": 4376,
    "মৰিগাঁও": 4377,
    "উপাৰ্জন": 4378,
    "ari": 4379,
    "প্ৰান্তত": 4380,
    "বুকু": 4381,
    "ই-": 4382,
    "জীৰ": 4383,
    "সন্তু": 4384,
    "ছয়": 4385,
    "চিকিত্‍সকে": 4386,
    "ৰাজীৱ": 4387,
    "সংস্কৃতি": 4388,
    "আদিত": 4389,
    "গাহৰি": 4390,
    "নিম্ন": 4391,
    "pol": 4392,
    "তেতিয়া": 4393,
    "মনোন": 4394,
    "ip": 4395,
    "বিচ্": 4396,
    "্যাত": 4397,
    "মিলিত": 4398,
    "আবদ্ধ": 4399,
    "ের": 4400,
    "গোট": 4401,
    "কমল": 4402,
    "অনুপ": 4403,
    "ব্যৰ্থ": 4404,
    "সংবাদমেলত": 4405,
    "ধাৰণা": 4406,
    "(L": 4407,
    "অভিলে": 4408,
    "সিংহ": 4409,
    "সাৱধান": 4410,
    "বাহিৰে": 4411,
    "তোলা": 4412,
    "বস": 4413,
    "/মনোজ/": 4414,
    "রের": 4415,
    "অপে": 4416,
    "ক'লে": 4417,
    "আক্ৰমণত": 4418,
    "ক-": 4419,
    "be": 4420,
    "ষ্ট্ৰে": 4421,
    "তেতিয়া": 4422,
    "খাদ্যৰ": 4423,
    "পোছা": 4424,
    "এণ্ড": 4425,
    "চকীৰ": 4426,
    "মোক": 4427,
    "চিং": 4428,
    "কাজিৰঙা": 4429,
    "পদ্": 4430,
    "্ৰেই": 4431,
    "দূৰত": 4432,
    "15": 4433,
    "৩৯": 4434,
    "মীন": 4435,
    "যিটো": 4436,
    "টাৰ্": 4437,
    "গজ": 4438,
    "গোহাঁ": 4439,
    "পৰিবহণ": 4440,
    "গেছ": 4441,
    "মেলা": 4442,
    "ঘেৰি": 4443,
    "বিভাগত": 4444,
    "কিৰ": 4445,
    "কেইবাগৰাকী": 4446,
    "দাঁ": 4447,
    "বাসগৃহত": 4448,
    "মাফি": 4449,
    "বনৰ": 4450,
    "প্ৰশাসন": 4451,
    "মাজুলী": 4452,
    "ৰোগত": 4453,
    "মিৰ": 4454,
    "চিকিত্‍সালয়ত": 4455,
    "বাৰ্তা": 4456,
    "একাউণ্ট": 4457,
    "চূড়ান্ত": 4458,
    "আপোনাক": 4459,
    "কালীন": 4460,
    "লাহে": 4461,
    "পলায়ন": 4462,
    "বিশ্ম": 4463,
    "গোটেই": 4464,
    "মেৰাম": 4465,
    "িতাপ": 4466,
    "তুলনাত": 4467,
    "শীঘ্ৰেই": 4468,
    "গুণোত্‍": 4469,
    "পৃষ্ঠ": 4470,
    "লৈছে।": 4471,
    "me": 4472,
    "ly": 4473,
    "ধুনিক": 4474,
    "ছো।": 4475,
    "গহ": 4476,
    "জন,": 4477,
    "বস্তু": 4478,
    "আচৰিত": 4479,
    "প্ৰাকৃতিক": 4480,
    "চাব": 4481,
    "ান্ত্ৰ": 4482,
    "মঙলদৈ": 4483,
    "কঢ়িয়াই": 4484,
    "সহজ": 4485,
    "জনসাধাৰণ": 4486,
    "ঘন্": 4487,
    "ধৰণে": 4488,
    "পৰাস্ত": 4489,
    "মহম্মদ": 4490,
    "পুঁজি": 4491,
    "উগ্ৰ": 4492,
    "ছবিখনত": 4493,
    "লিখ": 4494,
    "খনকৈ": 4495,
    "নিয়াৰ": 4496,
    "ইডি": 4497,
    "ুৰে": 4498,
    "মূৰ্তি": 4499,
    "অসুস্থ": 4500,
    "ভাগ্যৱান": 4501,
    "তীৰ্ণ": 4502,
    "স্থায়ী": 4503,
    "ঢকুৱাখনা": 4504,
    "দুৰ্বৃত্ত": 4505,
    "বিঘা": 4506,
    "নাই,": 4507,
    "পৰিৱৰ্তন": 4508,
    "জয়ী": 4509,
    "যিয়ে": 4510,
    "কেনেদৰে": 4511,
    "নিৰ্ধাৰণ": 4512,
    "ধক": 4513,
    "কৰিছে।এই": 4514,
    "বিয়া": 4515,
    "by": 4516,
    "বিলাসী": 4517,
    "ফাইনে": 4518,
    "৫৫": 4519,
    "ৱন": 4520,
    "ভাস্কৰ": 4521,
    "ৰায়": 4522,
    "ঘৰে": 4523,
    "৩.": 4524,
    "প্ৰচেষ্টা": 4525,
    "সপোন": 4526,
    "গৱেষণা": 4527,
    "সমান্তৰালকৈ": 4528,
    "মৃত্যুক": 4529,
    "তাৰিখ": 4530,
    "কাষৰ": 4531,
    "গ্রে": 4532,
    "চান্": 4533,
    "বটদ্ৰৱা": 4534,
    "প্ৰতিৰক্ষা": 4535,
    "ভূঞা": 4536,
    "(K": 4537,
    "সামৰ": 4538,
    "শ্ৰেণী": 4539,
    "art": 4540,
    "লেৰে": 4541,
    "কাৰ্যসূচীৰে": 4542,
    "',": 4543,
    "বিনিয়োগ": 4544,
    "পিতৃ-": 4545,
    "স্তৰ": 4546,
    "কেজি": 4547,
    "কবিতা": 4548,
    "অতুল": 4549,
    "আসনৰ": 4550,
    "মূল্যবৃদ্ধি": 4551,
    "কাপোৰ": 4552,
    "ক্ৰমা": 4553,
    "শিত": 4554,
    "নিষেধাজ্ঞা": 4555,
    "খালে": 4556,
    "থিতা": 4557,
    "অফি": 4558,
    "সন্ত্ৰাসবাদ": 4559,
    "জনোৱাৰ": 4560,
    "av": 4561,
    "চাউল": 4562,
    "হজ": 4563,
    "অত্য": 4564,
    "চাপৰ": 4565,
    "নিজেই": 4566,
    "ভুক্তভোগী": 4567,
    "বৈদেশিক": 4568,
    "মিটে": 4569,
    "অভিভাৱক": 4570,
    "দলটো": 4571,
    "নেট": 4572,
    "-১৯": 4573,
    "উপনীত": 4574,
    "হত্যাকাণ্ড": 4575,
    "মানকা": 4576,
    "চিয়েল": 4577,
    "সমাধানৰ": 4578,
    "৯৬": 4579,
    "চাত": 4580,
    "ৰঙিয়া": 4581,
    "বৰুৱাৰ": 4582,
    "জানি": 4583,
    "মহিলাই": 4584,
    "নাগালে": 4585,
    "ভালে": 4586,
    "প্ৰসং": 4587,
    "পঞ্চায়ত": 4588,
    "ঘৰুৱা": 4589,
    "উণ্টাৰ": 4590,
    "জম্মু": 4591,
    "বাৰ্ষিক": 4592,
    "উত্তোলন": 4593,
    "ach": 4594,
    "মাধ": 4595,
    "যুক্তৰাষ্ট্ৰ": 4596,
    "অৱতীৰ্ণ": 4597,
    "ফাৰ্": 4598,
    "ল্ড": 4599,
    "বৰ্তমানে": 4600,
    "জালত": 4601,
    "মৰাণ": 4602,
    "তল": 4603,
    "হিচাবে": 4604,
    "পৃথক": 4605,
    "সেনাই": 4606,
    "ঁচা": 4607,
    "ভিটা": 4608,
    "ছাত্র": 4609,
    "টান": 4610,
    "বৈদ্য": 4611,
    "দ্ৰো": 4612,
    "আয়োগ": 4613,
    "জয়ন্ত": 4614,
    "সোধা": 4615,
    "গ্ৰামত": 4616,
    "জিক": 4617,
    "দিছ": 4618,
    "নতাৰ": 4619,
    "অৰ্ধ": 4620,
    "পদক্ষে": 4621,
    "বজাৰৰ": 4622,
    "বিটিআৰ": 4623,
    "বাসীক": 4624,
    "বাসগৃহ": 4625,
    "ক্ট": 4626,
    "সোমাই": 4627,
    "ভট্টা": 4628,
    "নেচ": 4629,
    "টিভ": 4630,
    "বগা": 4631,
    "ক্লিক": 4632,
    "বিত্তীয়": 4633,
    "ৰাতিপুৱা": 4634,
    "প্ৰধানমন্ত্ৰীৰ": 4635,
    "লিমিটে": 4636,
    "হেতু": 4637,
    "বায়ু": 4638,
    "প্ৰচে": 4639,
    "সাহাৰ": 4640,
    "প্ৰৱঞ্চ": 4641,
    "পাবলৈ": 4642,
    "খাব": 4643,
    "চলোৱাৰ": 4644,
    "কাৰ্যকলা": 4645,
    "আসনত": 4646,
    "মাৰ্ঘেৰি": 4647,
    "বন্ত": 4648,
    "পৰিস্থিতিত": 4649,
    "অনাৰ": 4650,
    "ব্যয়": 4651,
    "বাৰ্ত": 4652,
    "নিৰ্মিত": 4653,
    "মেণ্ট": 4654,
    "মেট্ৰ": 4655,
    "চাওক": 4656,
    "প্ৰদৰ্শ": 4657,
    "অনুষ্ঠানটোত": 4658,
    "যৌন": 4659,
    "৯.": 4660,
    "বিচৰা": 4661,
    "গনে": 4662,
    "শাখা": 4663,
    "স্বাধীনতা": 4664,
    "te": 4665,
    "স্নাত": 4666,
    "মিত্ৰজোঁ": 4667,
    "বেংকৰ": 4668,
    "খুলি": 4669,
    "কোঠ": 4670,
    "অসমীয়া": 4671,
    "খৰচ": 4672,
    "পৰিয়ালে": 4673,
    "জটিল": 4674,
    "লেগ": 4675,
    "এলৰ": 4676,
    "মিথ": 4677,
    "পনা": 4678,
    "দাৰে": 4679,
    "নৱে": 4680,
    "কৰ্তব্য": 4681,
    "টকাত": 4682,
    "বন্দী": 4683,
    "ান্বিত": 4684,
    "মূল্যৰ": 4685,
    "দৰমহা": 4686,
    "চাবলৈ": 4687,
    "হেজাৰ": 4688,
    "মনে": 4689,
    "হৈছিল,": 4690,
    "জন্য": 4691,
    "শিক্ষানুষ্ঠান": 4692,
    "পুৱাৰ": 4693,
    "ময়": 4694,
    "চিচি": 4695,
    "নমুনা": 4696,
    "দলত": 4697,
    "ৰিয়াৰ": 4698,
    "হান": 4699,
    "বিস্ম": 4700,
    "অনলাইন": 4701,
    "অভিলেখ": 4702,
    "কন্": 4703,
    "বিশ্মিতা/মনোজ": 4704,
    "পৰিছিল।": 4705,
    "শিক্ষকৰ": 4706,
    "্ড": 4707,
    "পৰিদৰ্শক": 4708,
    "য়ত্ত": 4709,
    "ঠিকাদাৰ": 4710,
    "ৰঞ্জন": 4711,
    "আইৰ": 4712,
    "বানাক্ৰান্ত": 4713,
    "ছয়": 4714,
    "প্ৰথমটো": 4715,
    "।তেওঁৰ": 4716,
    "।আনকি": 4717,
    "চহৰত": 4718,
    "চৰাইদেউ": 4719,
    "উদ্দিন": 4720,
    "ল,": 4721,
    "দাত": 4722,
    "পাকিস্তান": 4723,
    "হ্য": 4724,
    "পৰিধান": 4725,
    "মানকাচৰ": 4726,
    "শুনি": 4727,
    "বানপানীৰ": 4728,
    "বাগিচা": 4729,
    "টকা,": 4730,
    "পৰিপ্ৰেক্ষিতত": 4731,
    "থিতাতে": 4732,
    "মণ্ডলৰ": 4733,
    "মাং": 4734,
    "কেমে": 4735,
    "ান্ত্ৰিক": 4736,
    "হাকাৰ": 4737,
    "গম": 4738,
    "বিত্ৰ": 4739,
    "আফ": 4740,
    "টিছ": 4741,
    "ৰ্জাতিক": 4742,
    "মাৰ্চৰ": 4743,
    "৪৭": 4744,
    "পন্থী": 4745,
    "পুৰাৰ": 4746,
    "প্ৰেমৰ": 4747,
    "গুলি": 4748,
    "শালা": 4749,
    "।ইফালে,": 4750,
    "শ্বাহ": 4751,
    "জনগোষ্ঠীৰ": 4752,
    "তীৰ্থ": 4753,
    "শোভা": 4754,
    "ইংৰাজী": 4755,
    "এজে": 4756,
    "ব্যয়": 4757,
    "rest": 4758,
    "পৰিশোধ": 4759,
    "সন্তানৰ": 4760,
    "পৰিৱৰ্তে": 4761,
    "কাৰণত": 4762,
    "ani": 4763,
    "খীৰ": 4764,
    "পৰিণত": 4765,
    "্রা": 4766,
    "হঠ": 4767,
    "নিয়ে": 4768,
    "এনকাউণ্টাৰ": 4769,
    "ৰোধৰ": 4770,
    "সঙ্": 4771,
    "সপ্তাহ": 4772,
    "াৰো": 4773,
    "পদ্ম": 4774,
    "সভানে": 4775,
    "ঘূৰাই": 4776,
    "কনিষ্ট": 4777,
    "।''": 4778,
    "চিপি": 4779,
    "প্ৰচণ্ড": 4780,
    "ial": 4781,
    "কমা": 4782,
    "হাস্পতাল": 4783,
    "আশ্ৰয়": 4784,
    "পৰিবহন": 4785,
    "লোকজনৰ": 4786,
    "সংশ্": 4787,
    "পত্নীৰ": 4788,
    "এলেকাৰ": 4789,
    "অন্ধ": 4790,
    "ub": 4791,
    "ব্ৰহ্মপুত্ৰৰ": 4792,
    "সফলত": 4793,
    "ংগে": 4794,
    "বাবে,": 4795,
    "সূৰ্য": 4796,
    "ৰেই": 4797,
    "িলৈ": 4798,
    "কেশৱ": 4799,
    "কোঁৱৰ": 4800,
    "আজিও": 4801,
    "সময়তে,": 4802,
    "লাকী": 4803,
    "নিউজ": 4804,
    "আমাক": 4805,
    "প্ৰতিযোগিতাত": 4806,
    "সাম্": 4807,
    "জনকৈ": 4808,
    "প্ৰকাৰ": 4809,
    "রু": 4810,
    "ress": 4811,
    "সংস্থাৰ": 4812,
    "পবিত্ৰ": 4813,
    "জ্বলাই": 4814,
    "ম্পত": 4815,
    "সংখ্যাল": 4816,
    "স্থানান্তৰ": 4817,
    "/মনোজ/অৰবিন্দ": 4818,
    "অধিবক্তা": 4819,
    "নিবন": 4820,
    "নিৰ্যাত": 4821,
    "অৱস্থিত": 4822,
    "ষ্টেডি": 4823,
    "য়ত্ব": 4824,
    "উন্নয়নৰ": 4825,
    "এচি": 4826,
    "ধানত": 4827,
    "বাসীয়ে": 4828,
    "পদী": 4829,
    "এপ্ৰিলৰ": 4830,
    "ালীৰ": 4831,
    "আহো": 4832,
    "বিশুদ্ধ": 4833,
    "কাছাৰ": 4834,
    "নোৱাৰিলে": 4835,
    "মুখা": 4836,
    "য়ী": 4837,
    "বিধ্বস্ত": 4838,
    "কেবিনেট": 4839,
    "যাব।": 4840,
    "ঞ্জি": 4841,
    "চাও": 4842,
    "এতিয়ালৈকে": 4843,
    "আশী": 4844,
    "এলেকা": 4845,
    "পৰিচয়": 4846,
    "৫৮": 4847,
    "চলিছে": 4848,
    "সুবি": 4849,
    "নোৱাৰি": 4850,
    "আৱা": 4851,
    "প্ৰত্যাহ্বান": 4852,
    "জেনে": 4853,
    "মহকুমাৰ": 4854,
    "র্ত": 4855,
    "কাৰ্যনিৰ্বা": 4856,
    "পক্ষৰ": 4857,
    "নহ'ল": 4858,
    "তোলাৰ": 4859,
    "প্ৰমোদ": 4860,
    "24": 4861,
    "inister": 4862,
    "পলি": 4863,
    "শেহতীয়া": 4864,
    "ধাৰাবাহ": 4865,
    "সামৰণি": 4866,
    "অমৃত": 4867,
    "কষ্ট": 4868,
    "শাসন": 4869,
    "ইতি": 4870,
    "তামূলক": 4871,
    "অভিযোগৰ": 4872,
    "্বাধীন": 4873,
    "কেবা": 4874,
    "নেতাই": 4875,
    "৩২": 4876,
    "ath": 4877,
    "বিষয়ত": 4878,
    "চলায়": 4879,
    "মহানগৰীত": 4880,
    "গাঁৱ": 4881,
    "প্ৰয়োজনীয়": 4882,
    "প্ৰক্ৰিয়া": 4883,
    "নগাঁৱত": 4884,
    "ছিল,": 4885,
    "নাহৰ": 4886,
    "মেচ": 4887,
    "ডিগ্ৰী": 4888,
    "তালুক": 4889,
    "নাট্য": 4890,
    "আপোন": 4891,
    "খানৰ": 4892,
    "নকৰাৰ": 4893,
    "জোন": 4894,
    "শংকৰদেৱ": 4895,
    "আত্মহত্যা": 4896,
    "পঞ্জীয়": 4897,
    "সুবিধাৰ": 4898,
    "অবিহ": 4899,
    "অনুমোদন": 4900,
    "বাহিৰত": 4901,
    "কৰিছে,": 4902,
    "২০১৮": 4903,
    "ভৱন": 4904,
    "বৃহত্তৰ": 4905,
    "বংগৰ": 4906,
    "বিদেশী": 4907,
    "নেতৃত্বাধীন": 4908,
    "শিবিৰত": 4909,
    "কেন্দ্র": 4910,
    "আইনী": 4911,
    "চীনৰ": 4912,
    "সূচী": 4913,
    "ric": 4914,
    "৫.": 4915,
    "চাৰিটা": 4916,
    "কলৈ": 4917,
    "০.": 4918,
    "পাৰ্থ": 4919,
    "কেইগৰাকী": 4920,
    "Guwahat": 4921,
    "যুৱত": 4922,
    "ো।": 4923,
    "ত্ৰিপুৰাৰ": 4924,
    "আন্দোলন": 4925,
    "্ণ": 4926,
    "নিৰুদ্": 4927,
    "অবিহনে": 4928,
    "ভাবি": 4929,
    "শইকীয়াই": 4930,
    "বানে": 4931,
    "নিয়ে": 4932,
    "যাদৱ": 4933,
    "ঠাতে": 4934,
    "মন্ত্ৰীৰ": 4935,
    "অভিনয়": 4936,
    "চিকিত্‍সকৰ": 4937,
    "বয়স": 4938,
    "against": 4939,
    "সংশ্লিষ্ট": 4940,
    "১৯৮": 4941,
    "কয়-": 4942,
    "পায়": 4943,
    "গাখীৰ": 4944,
    "নোৱাৰিব": 4945,
    "অভিনন্দন": 4946,
    "দ্ৰৌ": 4947,
    "(E": 4948,
    "চাঞ্চল্যৰ": 4949,
    "han": 4950,
    "বিস্ফোৰণ": 4951,
    "শস্ত্ৰ": 4952,
    "লিখা": 4953,
    "৭.": 4954,
    "সদৰী": 4955,
    "।এক": 4956,
    "মনা": 4957,
    "বিকাশৰ": 4958,
    "চিবি": 4959,
    "ইপিনে": 4960,
    "দিক": 4961,
    "বান্ধ": 4962,
    "গামো": 4963,
    "কই": 4964,
    "তালাচী": 4965,
    "ৰাজ্যপাল": 4966,
    "পূৱ": 4967,
    "তকৈও": 4968,
    "ন্যায়ালয়ে": 4969,
    "িত্ৰী": 4970,
    "শ্যনেল": 4971,
    "জানে": 4972,
    "জামিন": 4973,
    "মাধ্যম": 4974,
    "চিল": 4975,
    "শিক্ষান্ত": 4976,
    "প্ৰশ্নৰ": 4977,
    "হৈছে।হিন্দুস্থান": 4978,
    "ঈদ": 4979,
    "।আৰক্ষীৰ": 4980,
    "জিলাখনত": 4981,
    "নিষ্": 4982,
    "উঠা": 4983,
    "গোৱালপাৰা": 4984,
    "অভিযন্তা": 4985,
    "।তদুপৰি": 4986,
    "কান্দি": 4987,
    "এবং": 4988,
    "সম্প্ৰসাৰ": 4989,
    "কক্ষ": 4990,
    "সভাপতিত্ব": 4991,
    "test": 4992,
    "মুম্বাইৰ": 4993,
    "প্ৰকাৰৰ": 4994,
    "কুৰা": 4995,
    "ৰূপায়ণ": 4996,
    "চেম্পি": 4997,
    "শেষত": 4998,
    "দ্ধি": 4999,
    "সংৰক্ষণ": 5000,
    "প্ৰভাৱিত": 5001,
    "নিৰ্বাপক": 5002,
    "ীয়াত": 5003,
    "হাহাকাৰ": 5004,
    "গোপাল": 5005,
    "দুৰ্বল": 5006,
    "টা,": 5007,
    "বয়স": 5008,
    "প্ৰেক্ষা": 5009,
    "কোচ": 5010,
    "অংগ": 5011,
    "হুছেই": 5012,
    "শিৱসাগৰৰ": 5013,
    "ঙ্গল": 5014,
    "আনুষ্ঠানিকভাৱে": 5015,
    "পুখুৰ": 5016,
    "তেলে": 5017,
    "কৰ্ণা": 5018,
    "তামিল": 5019,
    "কৰিছিল,": 5020,
    "সঞ্জীৱ": 5021,
    "গাঁথ": 5022,
    "দণ্ডা": 5023,
    "কঁ": 5024,
    "বেদখল": 5025,
    "over": 5026,
    "ক'ভিডৰ": 5027,
    "বাচক": 5028,
    "নিশাৰ": 5029,
    "পদ্ধতি": 5030,
    "কাজিৰঙ": 5031,
    "আউট": 5032,
    "arm": 5033,
    "ভালদৰে": 5034,
    "ভয়ংকৰ": 5035,
    "ঞ্জৰ": 5036,
    "আন্দোলনৰ": 5037,
    "সন্থাই": 5038,
    "থল": 5039,
    "মাতি": 5040,
    "প্ৰতিবেদ": 5041,
    "মাজুলীৰ": 5042,
    "থাকিবলৈ": 5043,
    "ীতিৰ": 5044,
    "অপৰাধী": 5045,
    "পাৰাৰ": 5046,
    "ৰেড": 5047,
    "/ৰমেন/মনোজ": 5048,
    "গৃহমন্ত্ৰী": 5049,
    "MC": 5050,
    "লিং": 5051,
    ")ত": 5052,
    "কাপুৰ": 5053,
    "চাঞ্চল্য": 5054,
    "সঁচা": 5055,
    "বৰ্মন": 5056,
    "মনোযোগ": 5057,
    "ৰবি": 5058,
    "কীয়া": 5059,
    "প্ৰসংগত": 5060,
    "বতা": 5061,
    "আঁতৰি": 5062,
    "সমৃ": 5063,
    "আন্তৰ্জাতিক": 5064,
    "সক্ৰিয়": 5065,
    "ষ্ট্ৰেলি": 5066,
    "কতা": 5067,
    "মহোত্‍সৱ": 5068,
    "ৰিয়া": 5069,
    "বন্তি": 5070,
    "ঐতি": 5071,
    "কোনে": 5072,
    "তালিকাত": 5073,
    "বজাই": 5074,
    "ত্ৰিপুৰা": 5075,
    "গোহাঁই": 5076,
    "শীত": 5077,
    "জুনৰ": 5078,
    "অজিত": 5079,
    "নেচনেল": 5080,
    "ev": 5081,
    "নেশ্যনেল": 5082,
    "৪৯": 5083,
    "একাধিক": 5084,
    "কেৰে": 5085,
    "পৃথিৱীৰ": 5086,
    "জাব": 5087,
    "মজ": 5088,
    "্মা": 5089,
    "ট্ট": 5090,
    "কৰ্মীৰ": 5091,
    "সংৰক্ষিত": 5092,
    "বিপি": 5093,
    "হ’ব": 5094,
    "ডেকাই": 5095,
    "ভূমিত": 5096,
    "যুৱকজনে": 5097,
    "কাহিনী": 5098,
    "গাই": 5099,
    "মাটিত": 5100,
    "হাস্পতালত": 5101,
    "সকলেও": 5102,
    "কৃষকৰ": 5103,
    "সপ্তাহত": 5104,
    "কাৰ্যালয়ৰ": 5105,
    "সোণাৰ": 5106,
    "পানীয়ে": 5107,
    "বৰুৱা,": 5108,
    "সমিতিয়ে": 5109,
    "সুৰক্ষাৰ": 5110,
    "এএছ": 5111,
    "জনজাতি": 5112,
    "ity": 5113,
    "তাৰকা": 5114,
    "প্ৰতিখন": 5115,
    "নষ্ট": 5116,
    "আশ্বাস": 5117,
    "ম্বু": 5118,
    "মুখ্যমন্ত্ৰীগৰাকীয়ে": 5119,
    "নহ'ব": 5120,
    "নিৰীক্ষ": 5121,
    "নীয়": 5122,
    "ast": 5123,
    "বোমা": 5124,
    "নকৰে": 5125,
    "মুখি": 5126,
    "গাড়ীৰ": 5127,
    "চোৰে": 5128,
    "এক্সপ্ৰেছ": 5129,
    "বিদ্যালয়খনৰ": 5130,
    "পৰিচালক": 5131,
    "স্বাক্ষৰ": 5132,
    "কৰে।তেওঁ": 5133,
    "কৰ্তৃপক্ষৰ": 5134,
    "ভৱিষ্যত": 5135,
    "সংযোগী": 5136,
    "হঠাতে": 5137,
    "মোদীৰ": 5138,
    "শ্বেয়াৰ": 5139,
    "ইচ্ছা": 5140,
    "প্ৰতিদ্বন্দ": 5141,
    "সমীপৰ": 5142,
    "ডাল": 5143,
    "হাতীৰ": 5144,
    "পৰ্যায়ৰ": 5145,
    "ৱী": 5146,
    "কাঢ়ি": 5147,
    "আমেৰিকাৰ": 5148,
    "দিনাই": 5149,
    "টকাধীন": 5150,
    "নের": 5151,
    "ef": 5152,
    "মণিপুৰৰ": 5153,
    "জেহা": 5154,
    "ছাত্ৰ-ছাত্ৰীৰ": 5155,
    "জনী": 5156,
    "ন্যায়াধীশ": 5157,
    "নাৰায়ণ": 5158,
    "যুৱকক": 5159,
    "অধিনায়ক": 5160,
    "পৰিক্ৰমা": 5161,
    "ভিৰ": 5162,
    "কাইলৈ": 5163,
    "ইষ্ট": 5164,
    "নেতাৰ": 5165,
    "বিদ্যা": 5166,
    "গল": 5167,
    "শৈক্ষিক": 5168,
    "৬.": 5169,
    "জুলাই:": 5170,
    "বুক": 5171,
    "মিছা": 5172,
    "মে':": 5173,
    "বিশ্ববিদ্যালয়ৰ": 5174,
    "ক্য": 5175,
    "সময়ছোৱাত": 5176,
    "শুক্ৰ": 5177,
    "সিন": 5178,
    "ডেৰ": 5179,
    "আহিল": 5180,
    "12": 5181,
    "বিজেপিয়ে": 5182,
    "কাম-": 5183,
    "বহা": 5184,
    "প্ৰত": 5185,
    "ৰৈ": 5186,
    "দ্ৰৌপদী": 5187,
    "হাজিৰ": 5188,
    "আইপি": 5189,
    "ট,": 5190,
    "টীকাকৰণ": 5191,
    "জক": 5192,
    "মন্দিৰৰ": 5193,
    "ৰঞ্জ": 5194,
    "og": 5195,
    "ইনিং": 5196,
    "৬৫": 5197,
    "।যদি": 5198,
    "২০১৭": 5199,
    "কপিল": 5200,
    "আলীৰ": 5201,
    "গিত": 5202,
    "মাহে": 5203,
    "সুখী": 5204,
    "মৰ্মে": 5205,
    "ৰেলৱে": 5206,
    "পৰ্যায়ত": 5207,
    "ৰে'লৱে": 5208,
    "সংঘাত": 5209,
    "প্ৰহাৰ": 5210,
    "অষ্ট্ৰেলি": 5211,
    "ai": 5212,
    "rug": 5213,
    "সংগ্ৰাম": 5214,
    "জনিত": 5215,
    "জন্মৰ": 5216,
    "মুখ্যমন্ত্রী": 5217,
    "হণা": 5218,
    "পথটো": 5219,
    "হব।": 5220,
    "থাকো": 5221,
    "বান্ধি": 5222,
    "চাৰিও": 5223,
    "সৌৰ": 5224,
    "চেন্নাই": 5225,
    "্বে": 5226,
    "।The": 5227,
    "বিবাহৰ": 5228,
    "পাচলি": 5229,
    "ড়ী": 5230,
    "arrest": 5231,
    "বিহাৰ": 5232,
    "ৱতী": 5233,
    "বেয়া": 5234,
    "অংশী": 5235,
    "অৱসৰপ্ৰাপ্ত": 5236,
    "সামৰি": 5237,
    "ational": 5238,
    "ive": 5239,
    "কালৰ": 5240,
    "হিন্দী": 5241,
    "সংগঠনে": 5242,
    "বাগিচাৰ": 5243,
    "ফেচ": 5244,
    "কৰ্তা": 5245,
    "মহিলাগৰাকীৰ": 5246,
    "সোঁ": 5247,
    "তিতা": 5248,
    "anta": 5249,
    "গ্ৰাম্য": 5250,
    "সংকটজনক": 5251,
    "ভিটামিন": 5252,
    "বাগৰি": 5253,
    "অনুমান": 5254,
    "হৃত": 5255,
    "পঞ্জাৱ": 5256,
    "মেৱান": 5257,
    "বিপ্ল": 5258,
    "বৰ্ষা": 5259,
    "কোম্পানীৰ": 5260,
    "ভিত্তিক": 5261,
    "গুজৰাটৰ": 5262,
    "দুৰ্ঘটনাটো": 5263,
    "হাৰা": 5264,
    "জাপান": 5265,
    "কুমাৰে": 5266,
    "।ঘটনা": 5267,
    "মৃত্যুত": 5268,
    "বৃত্তি": 5269,
    "ৰোপণ": 5270,
    "লেখ": 5271,
    "সকাহ": 5272,
    "election": 5273,
    "পাৰে,": 5274,
    "ম্বী": 5275,
    "ওক।": 5276,
    "ঞ্চলত": 5277,
    "বিতা": 5278,
    "শীৰ্ষক": 5279,
    "hat": 5280,
    "বুকুত": 5281,
    "সমীপত": 5282,
    "বিজ্ঞ": 5283,
    "শ্ৰীলংকাৰ": 5284,
    "গ্ধ": 5285,
    "চলৰ": 5286,
    "কবলত": 5287,
    "পুথি": 5288,
    "ow": 5289,
    "পৰিৱেশৰ": 5290,
    "ভাৰত-": 5291,
    "স্পৰ্শ": 5292,
    "শ্যক": 5293,
    "আছিল,": 5294,
    "কাৰীয়ে": 5295,
    "দ্বীপ": 5296,
    "অংশীদাৰ": 5297,
    "14": 5298,
    "শ্র": 5299,
    "ইনষ্টা": 5300,
    "ine": 5301,
    "ৰঙৰ": 5302,
    "উত্তৰাখ": 5303,
    "শ্বাহে": 5304,
    "যোৰহাটৰ": 5305,
    "গুলীচালনা": 5306,
    "নৌ": 5307,
    "থোৱা": 5308,
    "বোৱাৰ": 5309,
    "পিপি": 5310,
    "হিম": 5311,
    "খাৰুৱা": 5312,
    "AI": 5313,
    "পৰম্পৰাগত": 5314,
    "উজ্": 5315,
    "৬৭": 5316,
    "মুদ্ৰা": 5317,
    "ৰাষ্ট্ৰপতিৰ": 5318,
    "যুৱক-যুৱতী": 5319,
    "কোৱ": 5320,
    "দন": 5321,
    "পেৰা": 5322,
    "চিন্তিত": 5323,
    "আদালতৰ": 5324,
    "ৰণবীৰ": 5325,
    "ভুগি": 5326,
    "সামান্য": 5327,
    "কাৰাগাৰ": 5328,
    "মাত্ৰা": 5329,
    "স্ৰা": 5330,
    "আঁতৰ": 5331,
    "মাদ্ৰা": 5332,
    "সূত্ৰই": 5333,
    "প্ৰেমত": 5334,
    "সহজে": 5335,
    "হাউ": 5336,
    "কলিয়াবৰৰ": 5337,
    "বিকল্প": 5338,
    "সন্থা": 5339,
    "ণ্য": 5340,
    "শেহতীয়া": 5341,
    "পাৰাত": 5342,
    "লৈছিল": 5343,
    "অনুৰাগ": 5344,
    "দিশৰ": 5345,
    "পাতৰ": 5346,
    "প্ৰদেশত": 5347,
    "চাৰিজন": 5348,
    "সৰ্বো": 5349,
    "ব্লি": 5350,
    "গোঁ": 5351,
    "গৰম": 5352,
    "৬৮": 5353,
    "যান-": 5354,
    "ৰাউ": 5355,
    "পদত": 5356,
    "প্ৰযো": 5357,
    "হকৰ": 5358,
    "ভট্টাচাৰ্য": 5359,
    "মহাবিদ্যালয়ৰ": 5360,
    "নিয়োগ": 5361,
    "বহন": 5362,
    "সময়ছোৱাত": 5363,
    "Assam)": 5364,
    "৪৪": 5365,
    "।অসমৰ": 5366,
    "শৰ্মাক": 5367,
    "আয়ুক্ত": 5368,
    "প্ৰয়াত": 5369,
    "দলক": 5370,
    "ক'ব": 5371,
    "কাকত": 5372,
    "ছাঁ": 5373,
    "নুৰ": 5374,
    "কোষ": 5375,
    "লেণ্ডৰ": 5376,
    "শ্ৰদ্ধাঞ্জলি": 5377,
    "লগাই": 5378,
    "সীমান্তত": 5379,
    "ult": 5380,
    "ডিব্ৰুগড়ৰ": 5381,
    "পাৰত": 5382,
    "ল'লে": 5383,
    "ভাষণত": 5384,
    "অপহৰণ": 5385,
    "টাটা": 5386,
    "Inst": 5387,
    "অধ্যয়ন": 5388,
    "য়োগ": 5389,
    "দুটাকৈ": 5390,
    "esh": 5391,
    "অৱদান": 5392,
    "বিৰোধীৰ": 5393,
    "ard": 5394,
    "বিবাদ": 5395,
    "ৰেকৰ্": 5396,
    "শ্বাহৰ": 5397,
    "পঞ্চায়তৰ": 5398,
    "প্ৰতিজন": 5399,
    "ep": 5400,
    "বেনাৰ্": 5401,
    "পাশত": 5402,
    "বিহীন": 5403,
    "খেলত": 5404,
    "ইউৰো": 5405,
    "তা,": 5406,
    "পুত্ৰৰ": 5407,
    "ন্যায়ালয়ৰ": 5408,
    "পঞ্জাৱৰ": 5409,
    "মেনে": 5410,
    "প্ৰদীপ": 5411,
    "য়াম": 5412,
    "থলুৱা": 5413,
    "বানন্দ": 5414,
    "ঘাইপথৰ": 5415,
    "বন্দৰ": 5416,
    "গুৰিৰ": 5417,
    "কুছি": 5418,
    "কৃষ্ট": 5419,
    "'s": 5420,
    "ৰায়": 5421,
    "উদা": 5422,
    "আগ্ৰহ": 5423,
    "মীৰ": 5424,
    "চৰিত্ৰত": 5425,
    "সা-": 5426,
    "।ইউ": 5427,
    "বিৰাজ": 5428,
    "আয়োজিত": 5429,
    "আফ্ৰ": 5430,
    "চলাচল": 5431,
    "নম্বৰত": 5432,
    "সমৰ্": 5433,
    "আদায়": 5434,
    "(I": 5435,
    "হত্যাকাণ্ডৰ": 5436,
    "হিং": 5437,
    "গোটৰ": 5438,
    "বাৰ্তালা": 5439,
    "চিকিত্‍সালয়লৈ": 5440,
    "উপদে": 5441,
    "দেশে": 5442,
    "iss": 5443,
    "সভানেত্ৰী": 5444,
    "ঐতিহ্য": 5445,
    "আৰক্ষীয়ে।": 5446,
    "টিন": 5447,
    "ভিত্তি": 5448,
    "হঠাত্‍": 5449,
    "সাধাৰণতে": 5450,
    "সংবিধান": 5451,
    "বিভাগক": 5452,
    "য়াৰে": 5453,
    "ডিজেল": 5454,
    "যাক": 5455,
    "ছন": 5456,
    "ছেন": 5457,
    "আনুষ্ঠানিক": 5458,
    "মন্ত্র": 5459,
    "ভাৱৰ": 5460,
    "স্বীকৃতি": 5461,
    "সাপে": 5462,
    "খেলৰ": 5463,
    "কাং": 5464,
    "পলাই": 5465,
    "গণতন্ত্ৰ": 5466,
    "পাৰি।": 5467,
    "শ্ৰমিকৰ": 5468,
    "শাখাত": 5469,
    "/ৰমেন/আলোক.": 5470,
    "সংখ্যালঘু": 5471,
    "এছি": 5472,
    "বিৰোধিতা": 5473,
    "দলীয়": 5474,
    "জানো": 5475,
    "ফেব্ৰুৱাৰীৰ": 5476,
    "cl": 5477,
    "সৰণ": 5478,
    "পেট": 5479,
    "কয়।": 5480,
    "মুখ্যমন্ত্ৰীয়ে": 5481,
    "লোকসভা": 5482,
    "বিষ্ণু": 5483,
    "চমুকৈ": 5484,
    "leg": 5485,
    "আব": 5486,
    "প্রধান": 5487,
    "তিনিচুকীয়া": 5488,
    "প্ৰধানমন্ত্ৰীয়ে": 5489,
    "৩৩": 5490,
    "নিৰুদ্দেশ": 5491,
    "অগপ": 5492,
    "পঞ্জীয়ন": 5493,
    "ব্য়": 5494,
    "টকৰ": 5495,
    "ন্যায়া": 5496,
    "উপহাৰ": 5497,
    "শূ": 5498,
    "বিশ্ববিদ্যালয়": 5499,
    "আলোচনাৰ": 5500,
    "ঘাইপথত": 5501,
    "ধূ": 5502,
    "ya": 5503,
    "অনাগত": 5504,
    "যুৱকজনক": 5505,
    "আদমী": 5506,
    "কঠিন": 5507,
    "সাহাৰ্য": 5508,
    "ুমান": 5509,
    "ধাৰিত": 5510,
    "ছিং": 5511,
    "কাৰত": 5512,
    "হিতাধিকাৰী": 5513,
    "মেলি": 5514,
    "ৰাণা": 5515,
    "তৈয়াৰ": 5516,
    "স্থলীত": 5517,
    "দেৰ": 5518,
    "অগ্নিকাণ্ডৰ": 5519,
    "লোকসকল": 5520,
    "লক্ষী": 5521,
    "ign": 5522,
    "rom": 5523,
    "গণিত": 5524,
    "।শুভ": 5525,
    "পুষ্টি": 5526,
    "ড়ে": 5527,
    "পজি": 5528,
    "আপত্তি": 5529,
    "নিশাই": 5530,
    "ছিক": 5531,
    "অভিনয়": 5532,
    "১৯৯": 5533,
    "বিপ": 5534,
    "পাইছিল।": 5535,
    "কুই": 5536,
    "দুয়োখন": 5537,
    "ত্ৰিত": 5538,
    "জনায়।": 5539,
    "ভৱনৰ": 5540,
    "অভিমুখে": 5541,
    "।ইয়াৰে": 5542,
    "বিষয়টো": 5543,
    "প্ৰতিবাদত": 5544,
    "গ্ৰু": 5545,
    "কিষা": 5546,
    "টকাকৈ": 5547,
    "agram": 5548,
    "পৰাত": 5549,
    "end": 5550,
    "দুয়োটা": 5551,
    "চলিব": 5552,
    "মন্ত্ৰালয়ে": 5553,
    "হণ": 5554,
    "ৰাজপথত": 5555,
    "আজম": 5556,
    "ব্যক্তিক": 5557,
    "ময়": 5558,
    "ংগাল": 5559,
    "বাঢ়নী": 5560,
    "(J": 5561,
    "জং": 5562,
    "।সম্প্ৰতি": 5563,
    "পৰ্যায়ত": 5564,
    "জেনেৰেল": 5565,
    "চাহি": 5566,
    "ছ'চিয়েল": 5567,
    "ফুকন": 5568,
    "মছজি": 5569,
    "শৃংখলা": 5570,
    "=\"": 5571,
    "ওৱাৰ": 5572,
    "িবোৰ": 5573,
    "উপদেষ্টা": 5574,
    "প্ৰশান্ত": 5575,
    "৪২": 5576,
    "ভূমিস্খলনৰ": 5577,
    "গৰাকীয়ে।": 5578,
    "তিনিখন": 5579,
    "হুংকাৰ": 5580,
    "ৱিক": 5581,
    "তিনিদিন": 5582,
    "দেশখনৰ": 5583,
    "iz": 5584,
    "চুৰ": 5585,
    "কমেও": 5586,
    "অভিহিত": 5587,
    "পুখুৰী": 5588,
    "ug": 5589,
    "সিঙৰ": 5590,
    "উপকাৰী": 5591,
    "ণ্ডিত": 5592,
    "একাডে": 5593,
    "মণ": 5594,
    "সকলে।": 5595,
    "age": 5596,
    "জুলাইৰ": 5597,
    "হাছা": 5598,
    "ৰাওনা": 5599,
    "ত।": 5600,
    "ক'ৰ": 5601,
    "চিনেমা": 5602,
    "কোভিডৰ": 5603,
    "য়োজিত": 5604,
    "কংগ্রে": 5605,
    "ase": 5606,
    "দেৱে": 5607,
    "ৰিয়া": 5608,
    "খানা": 5609,
    "ব্যতি": 5610,
    "আয়": 5611,
    "পাহাৰৰ": 5612,
    "বিশেষভাৱে": 5613,
    "বিষয়াই": 5614,
    "জোনাই": 5615,
    "দুৰ্বৃত্তই": 5616,
    "বজালৈ": 5617,
    "ম্পিক": 5618,
    "ল্লা": 5619,
    "হুৰ": 5620,
    "গণৰাজ্য": 5621,
    "শিক্ষয়": 5622,
    "।বহু": 5623,
    "ৰঞ্জিত": 5624,
    "মমতা": 5625,
    "বাংলাদেশৰ": 5626,
    "াৰ্থী": 5627,
    "ক্ৰা": 5628,
    "ঢা": 5629,
    "জনলৈ": 5630,
    "কৰিছিল।এই": 5631,
    "যুটীয়া": 5632,
    "মাংস": 5633,
    "একত্ৰিত": 5634,
    "উত্‍সাহিত": 5635,
    "কৰিবৰ": 5636,
    "পৰ্যালোচনা": 5637,
    "লুক": 5638,
    "উপৰিও,": 5639,
    "আচ": 5640,
    "পূৰ্বাঞ্চলৰ": 5641,
    "11": 5642,
    "দিনটোৰ": 5643,
    "পাক": 5644,
    "২০১৪": 5645,
    "অত্যন্ত": 5646,
    "প্ৰাৰ্থনা": 5647,
    "hoto": 5648,
    "পাচ": 5649,
    "হায়": 5650,
    "প্ৰতিক্ৰিয়াৰ": 5651,
    "পাৰ্টি": 5652,
    "with": 5653,
    "ripur": 5654,
    "ৰাছিয়া": 5655,
    "স্বাৰ্থত": 5656,
    "ষড়": 5657,
    "লক্ষ্ম": 5658,
    "ঘাটত": 5659,
    "নিয়ন্ত্ৰ": 5660,
    "লয়": 5661,
    "পথাৰৰ": 5662,
    "প্ৰজ্বল": 5663,
    "জেলেন": 5664,
    "।ৰাজ্যৰ": 5665,
    "ash": 5666,
    "নদীত": 5667,
    "ও,": 5668,
    "নেৰ": 5669,
    "কমলা": 5670,
    "যুষ": 5671,
    "যাত্ৰাৰ": 5672,
    "চিৰা": 5673,
    "চলে": 5674,
    "কাৰ্যালয়ত": 5675,
    "ইতিহাস": 5676,
    "কথাও": 5677,
    "ৰাজ্যজুৰি": 5678,
    "৭৭": 5679,
    "acc": 5680,
    "স্পে": 5681,
    "হ'বলগীয়া": 5682,
    "উদ্বোধ": 5683,
    "ব'": 5684,
    "প্ৰত্যাহাৰ": 5685,
    "বুজা": 5686,
    "সাংগঠ": 5687,
    "মূৰত": 5688,
    "পিষ্ট": 5689,
    "টোপ": 5690,
    "arrested": 5691,
    "অশোক": 5692,
    "পুৱাই": 5693,
    "চকুৰ": 5694,
    "পংক": 5695,
    "ডাই": 5696,
    "কনিষ্টবল": 5697,
    "সপ্তাহৰ": 5698,
    "ভয়াৱহ": 5699,
    "ডায়ে": 5700,
    "ok": 5701,
    "প্ৰসংগ": 5702,
    "মূল্যা": 5703,
    "সন্ধানত": 5704,
    "শ্ৰীমন্ত": 5705,
    "গুলীত": 5706,
    "সৰ্বানন্দ": 5707,
    "অমৰ": 5708,
    "কাৰক": 5709,
    "সেৱন": 5710,
    "শুনানি": 5711,
    "...": 5712,
    "কাগজ": 5713,
    "ৰূপৰ": 5714,
    "য়ার": 5715,
    "হকে": 5716,
    "পাৰ্টিৰ": 5717,
    "িং": 5718,
    "চৰম": 5719,
    "পণ্ডিত": 5720,
    "হবে": 5721,
    "কৰ্মশাল": 5722,
    "লয়।": 5723,
    "সাংগঠনিক": 5724,
    "লাত": 5725,
    "ফিকুল": 5726,
    "সঞ্জয়": 5727,
    "পৰিবে": 5728,
    "চেক": 5729,
    "ইয়াত": 5730,
    "শ্যা": 5731,
    "ম্যা": 5732,
    "বীন": 5733,
    "30": 5734,
    "অভিজ্ঞতা": 5735,
    "ুত্ব": 5736,
    "li": 5737,
    "।নগাঁও": 5738,
    "ণ্ডত": 5739,
    "অনুসৰণ": 5740,
    "এৰ": 5741,
    "স্থায়ী": 5742,
    "ছাল": 5743,
    "ৰাছিয়াই": 5744,
    "ব্যৱসায়ী": 5745,
    "কাৰিকৰী": 5746,
    "মঙ্গল": 5747,
    "।উল্লেখ": 5748,
    "জৰুৰী": 5749,
    "প্ৰতিষ্ঠানৰ": 5750,
    "দলটোক": 5751,
    "মন্দিৰত": 5752,
    "কথাটো": 5753,
    "ৰজা": 5754,
    "জলসম্পদ": 5755,
    "্লা": 5756,
    "জিম্মাত": 5757,
    "পৰাও": 5758,
    "Pol": 5759,
    "অলিম্পিক": 5760,
    "বিচাৰিছে": 5761,
    "লিখিত": 5762,
    "সংগঠনটোৰ": 5763,
    "উলিয়াই": 5764,
    "বৰ্তমানলৈকে": 5765,
    "দিছপুৰ": 5766,
    "(U": 5767,
    "আহোম": 5768,
    "পৰ্যাপ্ত": 5769,
    "মূল্যবৃদ্ধিৰ": 5770,
    "নিৰ্ধাৰিত": 5771,
    "বাগ": 5772,
    "ছিন্ন": 5773,
    "কৃতিৰ": 5774,
    "শাসকীয়": 5775,
    "চলাইছে": 5776,
    "উত্‍স": 5777,
    "ছালৰ": 5778,
    "পিচ": 5779,
    "কৌশল": 5780,
    "জেন": 5781,
    "-এ": 5782,
    "টিউ": 5783,
    "সোণোৱ": 5784,
    "নিবনুৱা": 5785,
    "বিবেচনা": 5786,
    "পুৰস্কাৰ": 5787,
    "মুৰ্মু": 5788,
    "ষ্টিক": 5789,
    "আহাৰ": 5790,
    "পূর্": 5791,
    "শোকা": 5792,
    "দোষী": 5793,
    "আগুৱাই": 5794,
    "ৱশ্যক": 5795,
    "হয়।এই": 5796,
    "যুগ": 5797,
    "হিজাব": 5798,
    "বিমানবন্দ": 5799,
    "ৰ্কৰ": 5800,
    "মিডিয়াত": 5801,
    "লিপ্ত": 5802,
    "জনীয়া": 5803,
    "ফাইল": 5804,
    "অৱস্থান": 5805,
    "ংকা": 5806,
    "চাকৰিৰ": 5807,
    "hu": 5808,
    "পাইছিল": 5809,
    "হওঁ": 5810,
    "বিজয়ী": 5811,
    "যুৱকজন": 5812,
    "মনোনয়ন": 5813,
    "স্থাপনৰ": 5814,
    "এণ্টি": 5815,
    "ড'": 5816,
    "স্বে": 5817,
    "নথকা": 5818,
    "পাটোৱাৰ": 5819,
    "োড": 5820,
    "কৰোনাৰ": 5821,
    "কৰে।লগতে": 5822,
    "ব্র": 5823,
    "অধিবেশ": 5824,
    "সুনীল": 5825,
    "মোডী": 5826,
    "দশম": 5827,
    "সংস্কৃতিৰ": 5828,
    "from": 5829,
    "16": 5830,
    "মহিলাক": 5831,
    "কৰুণ": 5832,
    "বন্যহস্ত": 5833,
    "হোৱাটো": 5834,
    "কুকুৰ": 5835,
    "জনালে": 5836,
    "নাৰে": 5837,
    "নেকি?": 5838,
    "ডেল": 5839,
    "বৰঠাকুৰ": 5840,
    "কেজৰি": 5841,
    "শোকৰ": 5842,
    "বৈঠকৰ": 5843,
    "বিৰা": 5844,
    "কেইটামান": 5845,
    "অনি": 5846,
    "তুলিছে।": 5847,
    "বেলেগ": 5848,
    "মিছাই": 5849,
    "ঘটনাটোৰ": 5850,
    "পৰিষদে": 5851,
    "ৱেবছ": 5852,
    "দ্বাৰ": 5853,
    "Bor": 5854,
    "ওদাল": 5855,
    "মন্ত্ৰালয়ৰ": 5856,
    "কেইদিন": 5857,
    "দুজনক": 5858,
    "নাৰায়ণ": 5859,
    "েন": 5860,
    "lic": 5861,
    "আছে।এই": 5862,
    "জুলি": 5863,
    "ৰন্ধন": 5864,
    "ব্যক্তিয়ে": 5865,
    "বিলি": 5866,
    "অত্যাধিক": 5867,
    "ৰাজবংশ": 5868,
    "প্ৰতিষে": 5869,
    "ৱেবছাই": 5870,
    "কাৰ্যত": 5871,
    "লৈছিল।": 5872,
    "থাকে,": 5873,
    "পেগু": 5874,
    "2022)": 5875,
    "পিৰ": 5876,
    "ইফালে,": 5877,
    "খুন্দা": 5878,
    "লোগ": 5879,
    "গৰাকী।": 5880,
    "ফলস্বৰূপে": 5881,
    "কৰোঁ": 5882,
    "ষড়যন্ত্ৰ": 5883,
    "লক্ষ্ণ": 5884,
    "কিদৰে": 5885,
    "একেটা": 5886,
    "চনী": 5887,
    "টি-২০": 5888,
    "আজা": 5889,
    "।আপো": 5890,
    "চিয়ে": 5891,
    "ভী": 5892,
    "ঁও": 5893,
    "ালীন": 5894,
    "পৰিষ্কাৰ": 5895,
    "োৱেই": 5896,
    "পৰ্যবে": 5897,
    "চোৱাত": 5898,
    "মংগে": 5899,
    "বেয়া": 5900,
    "চুলি": 5901,
    "ইণ্ডিয়া": 5902,
    "০১": 5903,
    "পঠি": 5904,
    "বহিঃ": 5905,
    "জাৰী": 5906,
    "ect": 5907,
    "দূৰ্": 5908,
    "out": 5909,
    "সোধ": 5910,
    "বিবৃতি": 5911,
    "উদ্বেগ": 5912,
    "বিদ্ৰো": 5913,
    "তিনিও": 5914,
    "ব্ৰত": 5915,
    "ভেকচিন": 5916,
    "মহে": 5917,
    "কাশ্মীৰৰ": 5918,
    "ফলৰ": 5919,
    "কাছ": 5920,
    "অংক": 5921,
    "ৰোড": 5922,
    "অভাৰত": 5923,
    "উন্নয়নৰ": 5924,
    "৬৯": 5925,
    "োদ": 5926,
    "আঙ": 5927,
    "দেহৰ": 5928,
    "ফুল্": 5929,
    "আৰম্ভণিতে": 5930,
    "৮,": 5931,
    "উদ্যানৰ": 5932,
    "সদায়": 5933,
    "ইঞ্জি": 5934,
    "Bar": 5935,
    "25": 5936,
    "নীলা": 5937,
    "উলং": 5938,
    "মংগেশ": 5939,
    "খণ্ডত": 5940,
    "ধৰ্মীয়": 5941,
    "চলাইছিল": 5942,
    "ত্ত": 5943,
    "আখ্যা": 5944,
    "লক্ষা": 5945,
    "আধাৰশিলা": 5946,
    "ধনু": 5947,
    "অস্বীকাৰ": 5948,
    "ভাড়া": 5949,
    "ex": 5950,
    "পৰিচিত": 5951,
    "ব্যৱস্থাৰ": 5952,
    "ব্যতিক্ৰম": 5953,
    "কার্য": 5954,
    "৪৩": 5955,
    "ইয়াক": 5956,
    "ভগ্": 5957,
    "দৰাচলতে": 5958,
    "কৰ'": 5959,
    "সাফল": 5960,
    "োপ": 5961,
    "বেজ": 5962,
    "টাৰৰ": 5963,
    "নিলা": 5964,
    "নজৰ": 5965,
    "ovid": 5966,
    "ৱলম্বী": 5967,
    "বৰ্ধ": 5968,
    "ব্যব": 5969,
    "উটি": 5970,
    "মিডিয়াত": 5971,
    "যিমান": 5972,
    "বিধায়": 5973,
    "বাণী": 5974,
    "পংকজ": 5975,
    "লক্ষাধিক": 5976,
    "ort": 5977,
    "মিহ": 5978,
    "কঢ়িয়াই": 5979,
    "আনিবলৈ": 5980,
    "আপোনালো": 5981,
    "মহাৰাষ্ট্ৰৰ": 5982,
    "কৱ": 5983,
    "উত্তপ্ত": 5984,
    "নাথে": 5985,
    "আগে": 5986,
    "আদিত্য": 5987,
    "টিকট": 5988,
    "সৌন্দৰ": 5989,
    "Instagram": 5990,
    "ight": 5991,
    "।কেৱল": 5992,
    "ৰোহিত": 5993,
    "প্ৰাই": 5994,
    "ৰাকী": 5995,
    "police": 5996,
    "মানুহক": 5997,
    "ীকালীন": 5998,
    "আক": 5999
  },
  "merges": [
    [
      "া",
      "ৰ"
    ],
    [
      "্",
      "ৰ"
    ],
    [
      "ক",
      "ৰ"
    ],
    [
      "্",
      "য"
    ],
    [
      "্",
      "ত"
    ],
    [
      "া",
      "ন"
    ],
    [
      "য",
      "়"
    ],
    [
      "ব",
      "ি"
    ],
    [
      "ৰ",
      "া"
    ],
    [
      "প",
      "্ৰ"
    ],
    [
      "ব",
      "া"
    ],
    [
      "ত",
      "ি"
    ],
    [
      "ত",
      "ে"
    ],
    [
      "ি",
      "ল"
    ],
    [
      "ছ",
      "ে"
    ],
    [
      "ৰ",
      "্"
    ],
    [
      "ন",
      "ি"
    ],
    [
      "আ",
      "ৰ"
    ],
    [
      "ি",
      "ত"
    ],
    [
      "ক",
      "্"
    ],
    [
      "া",
      "ল"
    ],
    [
      "কৰ",
      "ি"
    ],
    [
      "স",
      "্"
    ],
    [
      "স",
      "ম"
    ],
    [
      "ন",
      "া"
    ],
    [
      "ক্",
      "ষ"
    ],
    [
      "ৰ",
      "ি"
    ],
    [
      "ন",
      "্"
    ],
    [
      "ক",
      "া"
    ],
    [
      "া",
      "ত"
    ],
    [
      "ক",
      "ে"
    ],
    [
      "দ",
      "ি"
    ],
    [
      "ষ",
      "্"
    ],
    [
      "া",
      "ই"
    ],
    [
      "ন",
      "্ত"
    ],
    [
      "ো",
      "ৱ"
    ],
    [
      "আৰ",
      "ু"
    ],
    [
      "ক",
      "াৰ"
    ],
    [
      "ব",
      "ে"
    ],
    [
      "হ",
      "ৈ"
    ],
    [
      "ী",
      "য়"
    ],
    [
      "ল",
      "ৈ"
    ],
    [
      "ল",
      "ি"
    ],
    [
      "স্",
      "থ"
    ],
    [
      "জ",
      "ন"
    ],
    [
      "ম",
      "া"
    ],
    [
      "ী",
      "ৰ"
    ],
    [
      "এ",
      "ই"
    ],
    [
      "ক",
      "ল"
    ],
    [
      "ভ",
      "া"
    ],
    [
      "্",
      "ব"
    ],
    [
      "ছ",
      "িল"
    ],
    [
      "ি",
      "ক"
    ],
    [
      "ল",
      "া"
    ],
    [
      "হ",
      "া"
    ],
    [
      "ু",
      "ৰ"
    ],
    [
      "দ",
      "ে"
    ],
    [
      "কৰ",
      "া"
    ],
    [
      "ন",
      "ে"
    ],
    [
      "ষ্",
      "ট"
    ],
    [
      "ন",
      "ৰ"
    ],
    [
      "প",
      "ৰা"
    ],
    [
      "স",
      "া"
    ],
    [
      "দ",
      "্"
    ],
    [
      "প",
      "ৰি"
    ],
    [
      "ছে",
      "।"
    ],
    [
      "ৰ",
      "ে"
    ],
    [
      "ম",
      "ু"
    ],
    [
      "ভ",
      "ি"
    ],
    [
      "গ",
      "্ৰ"
    ],
    [
      "ন্",
      "দ"
    ],
    [
      "ু",
      "ৱ"
    ],
    [
      "স",
      "ং"
    ],
    [
      "ো",
      "গ"
    ],
    [
      "ক",
      "ি"
    ],
    [
      "ী",
      "য়"
    ],
    [
      "হ",
      "ি"
    ],
    [
      "প",
      "ি"
    ],
    [
      "ট",
      "ো"
    ],
    [
      "ট",
      "া"
    ],
    [
      "স",
      "কল"
    ],
    [
      "কৰ",
      "ে"
    ],
    [
      "ক",
      "্ত"
    ],
    [
      "ল",
      "গ"
    ],
    [
      "প",
      "া"
    ],
    [
      "োৱ",
      "া"
    ],
    [
      "ল",
      "ে"
    ],
    [
      "ল",
      "ো"
    ],
    [
      "ব",
      "্য"
    ],
    [
      "্",
      "চ"
    ],
    [
      "অ",
      "ন"
    ],
    [
      "ও",
      "ঁ"
    ],
    [
      "দ্",
      "ধ"
    ],
    [
      "বা",
      "বে"
    ],
    [
      "ম",
      "ান"
    ],
    [
      "ত",
      "া"
    ],
    [
      "ম",
      "ন্ত"
    ],
    [
      "াৰ",
      "ে"
    ],
    [
      "প",
      "ৰ"
    ],
    [
      "ক",
      "্ৰ"
    ],
    [
      "ব",
      "ু"
    ],
    [
      "খ",
      "ন"
    ],
    [
      "তে",
      "ওঁ"
    ],
    [
      "ণ",
      "্"
    ],
    [
      "ক",
      "ো"
    ],
    [
      "কৰি",
      "ব"
    ],
    [
      "থ",
      "া"
    ],
    [
      "্য",
      "া"
    ],
    [
      "দ",
      "ু"
    ],
    [
      "য়",
      "া"
    ],
    [
      "ম",
      "ে"
    ],
    [
      "ট",
      "ি"
    ],
    [
      "শ",
      "ি"
    ],
    [
      "ৰা",
      "ক"
    ],
    [
      "য",
      "ে"
    ],
    [
      "্ৰ",
      "ী"
    ],
    [
      "প্ৰ",
      "তি"
    ],
    [
      "অন",
      "ু"
    ],
    [
      "ব",
      "ৰ"
    ],
    [
      "চ",
      "ৰ"
    ],
    [
      "ৰা",
      "জ"
    ],
    [
      "গ",
      "ৰাক"
    ],
    [
      "য",
      "োগ"
    ],
    [
      "ম",
      "ি"
    ],
    [
      "আৰ",
      "ক্ষ"
    ],
    [
      "জ",
      "ি"
    ],
    [
      "গ",
      "া"
    ],
    [
      "্",
      "‍"
    ],
    [
      "প",
      "ে"
    ],
    [
      "ন",
      "ত"
    ],
    [
      "চ",
      "ি"
    ],
    [
      "চ",
      "া"
    ],
    [
      "দ",
      "া"
    ],
    [
      "চ",
      "াৰ"
    ],
    [
      "স",
      "ে"
    ],
    [
      "জ",
      "ে"
    ],
    [
      "ষ্",
      "ঠ"
    ],
    [
      "হ",
      "ত"
    ],
    [
      "য়",
      "া"
    ],
    [
      "াৰ",
      "্"
    ],
    [
      "অ",
      "ভি"
    ],
    [
      "ীয়",
      "ে"
    ],
    [
      "ঘ",
      "ট"
    ],
    [
      "হ",
      "'"
    ],
    [
      "ন",
      "ো"
    ],
    [
      "নি",
      "ৰ্"
    ],
    [
      "ছিল",
      "।"
    ],
    [
      "দে",
      "শ"
    ],
    [
      "ৃ",
      "ত"
    ],
    [
      "লগ",
      "তে"
    ],
    [
      "ণ্",
      "ড"
    ],
    [
      "খ",
      "্য"
    ],
    [
      "ম",
      "্"
    ],
    [
      "ভ",
      "াৰ"
    ],
    [
      "ক",
      "ৈ"
    ],
    [
      "বু",
      "লি"
    ],
    [
      "দ",
      "্য"
    ],
    [
      "ঞ",
      "্চ"
    ],
    [
      "ত",
      "্ৰ"
    ],
    [
      "য়",
      "ে"
    ],
    [
      "প",
      "ু"
    ],
    [
      "স",
      "্ত"
    ],
    [
      "ি",
      "ব"
    ],
    [
      "উ",
      "প"
    ],
    [
      "বি",
      "শ"
    ],
    [
      "হৈ",
      "ছে"
    ],
    [
      "প্ৰ",
      "া"
    ],
    [
      "ৱ",
      "ে"
    ],
    [
      "ো",
      "ৰ"
    ],
    [
      "হ",
      "য়"
    ],
    [
      "ম",
      "ৰ"
    ],
    [
      "সম",
      "্"
    ],
    [
      "অ",
      "সম"
    ],
    [
      "ঢ",
      "়"
    ],
    [
      "ম",
      "াৰ"
    ],
    [
      "জ",
      "া"
    ],
    [
      "জ",
      "িল"
    ],
    [
      "কৰ",
      "াৰ"
    ],
    [
      "ুৱ",
      "া"
    ],
    [
      "ু",
      "ল"
    ],
    [
      "গ",
      "ৰ"
    ],
    [
      "োৱ",
      "াৰ"
    ],
    [
      "প",
      "ূ"
    ],
    [
      "অ",
      "ধ"
    ],
    [
      "ড",
      "ি"
    ],
    [
      "হ",
      "ে"
    ],
    [
      "স্থ",
      "ান"
    ],
    [
      "ী",
      "ত"
    ],
    [
      "ীয়",
      "া"
    ],
    [
      "এ",
      "ক"
    ],
    [
      "য়",
      "ে"
    ],
    [
      "মন্ত",
      "্ৰী"
    ],
    [
      "বি",
      "ষ"
    ],
    [
      "্",
      "ম"
    ],
    [
      "ছ",
      "ৰ"
    ],
    [
      "হ'",
      "ব"
    ],
    [
      "ম",
      "হ"
    ],
    [
      "না",
      "ই"
    ],
    [
      "ধ",
      "ান"
    ],
    [
      "উ",
      "ত"
    ],
    [
      "ড",
      "়"
    ],
    [
      "চৰ",
      "কাৰ"
    ],
    [
      "হ",
      "ৰ"
    ],
    [
      "ণ",
      "ৰ"
    ],
    [
      "লো",
      "ক"
    ],
    [
      "ৰাজ",
      "্য"
    ],
    [
      "ান",
      "্ত"
    ],
    [
      "ব",
      "ৃ"
    ],
    [
      "ল",
      "ত"
    ],
    [
      "গৰাক",
      "ী"
    ],
    [
      "আ",
      "ন"
    ],
    [
      "ল",
      "্"
    ],
    [
      "হ",
      "ু"
    ],
    [
      "কৰে",
      "।"
    ],
    [
      "শ",
      "া"
    ],
    [
      "প",
      "ুৰ"
    ],
    [
      "ল",
      "ৰ"
    ],
    [
      "ব",
      "াৰ"
    ],
    [
      "গ",
      "ত"
    ],
    [
      "হ",
      "াৰ"
    ],
    [
      "ন্",
      "ন"
    ],
    [
      "স",
      "ু"
    ],
    [
      "ৰ",
      "ু"
    ],
    [
      "পি",
      "ছ"
    ],
    [
      "ক",
      "ু"
    ],
    [
      "য়",
      "াৰ"
    ],
    [
      "বা",
      "দ"
    ],
    [
      "ন্দ",
      "্ৰ"
    ],
    [
      "দ",
      "ান"
    ],
    [
      "গ",
      "ো"
    ],
    [
      "ৰ",
      "ত"
    ],
    [
      "ন",
      "ী"
    ],
    [
      "ব",
      "াৰে"
    ],
    [
      "স",
      "ন্"
    ],
    [
      "ম",
      "ূ"
    ],
    [
      "অনু",
      "ষ্ঠ"
    ],
    [
      "্ৰ",
      "া"
    ],
    [
      "হৈ",
      "ছে।"
    ],
    [
      "কাৰ",
      "্য"
    ],
    [
      "ৰা",
      "ই"
    ],
    [
      "অ",
      "ৱ"
    ],
    [
      "হ",
      "োৱা"
    ],
    [
      "শ",
      "ু"
    ],
    [
      "গ্ৰ",
      "হ"
    ],
    [
      "ন",
      "াৰ"
    ],
    [
      "গা",
      "ঁ"
    ],
    [
      "পূ",
      "ৰ্"
    ],
    [
      "ভাৰ",
      "ত"
    ],
    [
      "গ",
      "ৈ"
    ],
    [
      "খ",
      "া"
    ],
    [
      "ব্য",
      "ৱ"
    ],
    [
      "ক্ত",
      "ি"
    ],
    [
      "য়",
      "াৰ"
    ],
    [
      "্",
      "র"
    ],
    [
      "জ",
      "ান"
    ],
    [
      "২",
      "০"
    ],
    [
      "য",
      "ু"
    ],
    [
      "ং",
      "শ"
    ],
    [
      "কৰি",
      "ছে"
    ],
    [
      "মু",
      "খ্য"
    ],
    [
      "শি",
      "ক্ষ"
    ],
    [
      "প",
      "তি"
    ],
    [
      "জ",
      "ৰ"
    ],
    [
      "য",
      "া"
    ],
    [
      "সম",
      "া"
    ],
    [
      "চ",
      "ে"
    ],
    [
      "।",
      "ই"
    ],
    [
      "ৱ",
      "ৰ"
    ],
    [
      "বি",
      "দ্য"
    ],
    [
      "ঘট",
      "না"
    ],
    [
      "কা",
      "শ"
    ],
    [
      "উ",
      "ল্"
    ],
    [
      "থ",
      "কা"
    ],
    [
      "প",
      "্ত"
    ],
    [
      "ধ",
      "া"
    ],
    [
      "দি",
      "ন"
    ],
    [
      "ত",
      "াৰ"
    ],
    [
      "ট",
      "ে"
    ],
    [
      "উল্",
      "লে"
    ],
    [
      "কৰিব",
      "লৈ"
    ],
    [
      "এ",
      "টা"
    ],
    [
      "াল",
      "ে"
    ],
    [
      "স",
      "ি"
    ],
    [
      "াল",
      "য়"
    ],
    [
      "ধ",
      "্য"
    ],
    [
      "i",
      "n"
    ],
    [
      "ৰ",
      "ো"
    ],
    [
      "ষ্ট",
      "্ৰ"
    ],
    [
      "হ",
      "য়"
    ],
    [
      "গ্ৰ",
      "ে"
    ],
    [
      "ু",
      "ত"
    ],
    [
      "স্",
      "বা"
    ],
    [
      "ক্ষ",
      "ে"
    ],
    [
      "জ",
      "াৰ"
    ],
    [
      "মা",
      "জ"
    ],
    [
      "ধ",
      "াৰ"
    ],
    [
      "ীয়",
      "ে"
    ],
    [
      "প",
      "থ"
    ],
    [
      "ম",
      "ৃত"
    ],
    [
      "আ",
      "জি"
    ],
    [
      "াত",
      "্ৰ"
    ],
    [
      "িল",
      "ে"
    ],
    [
      "স",
      "ৈ"
    ],
    [
      "স্থ",
      "া"
    ],
    [
      "প",
      "ো"
    ],
    [
      "চ",
      "ল"
    ],
    [
      "কে",
      "ই"
    ],
    [
      "খ",
      "ে"
    ],
    [
      "আৰক্ষ",
      "ী"
    ],
    [
      "ট",
      "াৰ"
    ],
    [
      "ক",
      "ৃ"
    ],
    [
      "ন্ত",
      "ু"
    ],
    [
      "দ",
      "ল"
    ],
    [
      "প",
      "াৰ"
    ],
    [
      "ষ্ট",
      "ি"
    ],
    [
      "স",
      "ভা"
    ],
    [
      "স্থ",
      "িত"
    ],
    [
      "ীয়",
      "া"
    ],
    [
      "ম",
      "ো"
    ],
    [
      "সৈ",
      "তে"
    ],
    [
      "দ",
      "ৰ"
    ],
    [
      "ছ",
      "ি"
    ],
    [
      "িত",
      "্‍"
    ],
    [
      "সকল",
      "ে"
    ],
    [
      "o",
      "n"
    ],
    [
      "লা",
      "ভ"
    ],
    [
      "প",
      "ত"
    ],
    [
      "গ্ৰহ",
      "ণ"
    ],
    [
      "আ",
      "ই"
    ],
    [
      "গ",
      "ে"
    ],
    [
      "ৰা",
      "ষ্ট্ৰ"
    ],
    [
      "জ",
      "ু"
    ],
    [
      "ব",
      "ছৰ"
    ],
    [
      "খ",
      "ি"
    ],
    [
      "মূ",
      "ল"
    ],
    [
      "প",
      "ান"
    ],
    [
      "ে",
      "ষ"
    ],
    [
      "ব",
      "হু"
    ],
    [
      "ণ",
      "া"
    ],
    [
      "সম",
      "ূ"
    ],
    [
      "বিশ",
      "্ব"
    ],
    [
      "ব",
      "লৈ"
    ],
    [
      "খ",
      "নৰ"
    ],
    [
      "ম্",
      "ভ"
    ],
    [
      "ঞ",
      "্"
    ],
    [
      "পিছ",
      "ত"
    ],
    [
      "চ",
      "িক"
    ],
    [
      "।",
      "এই"
    ],
    [
      "প",
      "ন"
    ],
    [
      "নিৰ্",
      "বা"
    ],
    [
      "স",
      "ৰ"
    ],
    [
      "কৰি",
      "ছে।"
    ],
    [
      "জিল",
      "া"
    ],
    [
      "ভ",
      "িত"
    ],
    [
      "আ",
      "হি"
    ],
    [
      "আ",
      "ছে"
    ],
    [
      "য",
      "ুৱ"
    ],
    [
      "ী",
      "ন"
    ],
    [
      "কি",
      "ন্তু"
    ],
    [
      "শ",
      "্ৰ"
    ],
    [
      "সে",
      "ই"
    ],
    [
      "এ",
      "তি"
    ],
    [
      "শ",
      "্"
    ],
    [
      "আ",
      "গ"
    ],
    [
      "চিক",
      "িত্‍"
    ],
    [
      "হা",
      "ট"
    ],
    [
      "a",
      "r"
    ],
    [
      "ি",
      "তি"
    ],
    [
      "ন্দ",
      "ু"
    ],
    [
      "স",
      "ূ"
    ],
    [
      "স",
      "ো"
    ],
    [
      "বি",
      "ভা"
    ],
    [
      "a",
      "n"
    ],
    [
      "ভ",
      "ূ"
    ],
    [
      "বি",
      "জে"
    ],
    [
      "ভি",
      "ন্ন"
    ],
    [
      "বৃ",
      "দ্ধ"
    ],
    [
      "কৰ",
      "্ম"
    ],
    [
      "কো",
      "নো"
    ],
    [
      "কে",
      "ন্দ্ৰ"
    ],
    [
      "প",
      "ঢ়"
    ],
    [
      "াৰ্",
      "থ"
    ],
    [
      "সকল",
      "ৰ"
    ],
    [
      "জ",
      "্"
    ],
    [
      "s",
      "t"
    ],
    [
      "স",
      "দ"
    ],
    [
      "উপ",
      "স্থিত"
    ],
    [
      "ব",
      "্ৰ"
    ],
    [
      "ী",
      "ক্ষ"
    ],
    [
      "প্ৰ",
      "কাশ"
    ],
    [
      "ভা",
      "ৱে"
    ],
    [
      "ম",
      "ত"
    ],
    [
      "সম",
      "য়"
    ],
    [
      "য",
      "দি"
    ],
    [
      "উত",
      "্ত"
    ],
    [
      "বি",
      "ভিন্ন"
    ],
    [
      "সকল",
      "ো"
    ],
    [
      "টো",
      "ৰ"
    ],
    [
      "প্ৰ",
      "দান"
    ],
    [
      "ট",
      "ৰ"
    ],
    [
      "নিৰ্বা",
      "চ"
    ],
    [
      "ম",
      "নো"
    ],
    [
      "বৃদ্ধ",
      "ি"
    ],
    [
      "বিজে",
      "পি"
    ],
    [
      "ল",
      "ী"
    ],
    [
      "ঘ",
      "ৰ"
    ],
    [
      "ধ",
      "ি"
    ],
    [
      "স",
      "হ"
    ],
    [
      "গ",
      "ু"
    ],
    [
      "ট",
      "কা"
    ],
    [
      "দ",
      "ৰে"
    ],
    [
      "ব",
      "্"
    ],
    [
      "অ",
      "ঞ্চ"
    ],
    [
      "ক",
      "ং"
    ],
    [
      "বা",
      "হ"
    ],
    [
      "তেওঁ",
      "ৰ"
    ],
    [
      "প",
      "াৰে"
    ],
    [
      "াল",
      "য়"
    ],
    [
      "ম",
      "্ব"
    ],
    [
      "আৰ",
      "ম্ভ"
    ],
    [
      "ব",
      "ী"
    ],
    [
      "পঢ়",
      "ক"
    ],
    [
      "ৰ",
      "ণ"
    ],
    [
      "বা",
      "স"
    ],
    [
      "বি",
      "ধা"
    ],
    [
      "বি",
      "ত"
    ],
    [
      "ক",
      "থা"
    ],
    [
      "a",
      "t"
    ],
    [
      "ব",
      "ান"
    ],
    [
      "লো",
      "কৰ"
    ],
    [
      "হি",
      "ন্দু"
    ],
    [
      "ত",
      "ো"
    ],
    [
      "জ",
      "ী"
    ],
    [
      "প্ৰ",
      "ে"
    ],
    [
      "ক",
      "য়"
    ],
    [
      "িল",
      "া"
    ],
    [
      "দ",
      "ী"
    ],
    [
      "ৰ্",
      "থ"
    ],
    [
      "ধ",
      "ৰি"
    ],
    [
      "e",
      "r"
    ],
    [
      "হ",
      "োৱাৰ"
    ],
    [
      "ব",
      "ৰ্"
    ],
    [
      "এ",
      "খন"
    ],
    [
      "ন্",
      "ধ"
    ],
    [
      "অভি",
      "যোগ"
    ],
    [
      "কাৰ",
      "ী"
    ],
    [
      "ই",
      "উ"
    ],
    [
      "জ্",
      "ঞ"
    ],
    [
      "গ",
      "ুৰ"
    ],
    [
      "ক্ৰ",
      "ম"
    ],
    [
      "ৰ্",
      "শ"
    ],
    [
      "ু",
      "ন"
    ],
    [
      "ৱ",
      "া"
    ],
    [
      "জান",
      "িব"
    ],
    [
      "থ",
      "ম"
    ],
    [
      "ত",
      "থা"
    ],
    [
      "কং",
      "গ্ৰে"
    ],
    [
      "কা",
      "ম"
    ],
    [
      "হি",
      "চা"
    ],
    [
      "অ",
      "তি"
    ],
    [
      "অনুষ্ঠ",
      "িত"
    ],
    [
      "প",
      "দ"
    ],
    [
      "িত",
      "া"
    ],
    [
      "ছ",
      "াত্ৰ"
    ],
    [
      "আৰক্ষ",
      "ীয়ে"
    ],
    [
      "আ",
      "ছে।"
    ],
    [
      "ড",
      "ে"
    ],
    [
      "সমা",
      "চাৰ"
    ],
    [
      "হিন্দু",
      "স্থান"
    ],
    [
      "চ",
      "ু"
    ],
    [
      "য",
      "ান"
    ],
    [
      "াল",
      "ি"
    ],
    [
      "ে",
      "ই"
    ],
    [
      "ব",
      "ৈ"
    ],
    [
      "গাঁ",
      "ও"
    ],
    [
      "উ",
      "চ"
    ],
    [
      "দ্ধ",
      "ে"
    ],
    [
      "ল",
      "াই"
    ],
    [
      "ত",
      "ী"
    ],
    [
      "তি",
      "নি"
    ],
    [
      "গ",
      "ুৱা"
    ],
    [
      "ফ",
      "লত"
    ],
    [
      "হা",
      "তে"
    ],
    [
      "বি",
      "ৰু"
    ],
    [
      "মু",
      "খ"
    ],
    [
      "ধ",
      "ন"
    ],
    [
      "মৃত",
      "্য"
    ],
    [
      "বিদ্য",
      "ালয়"
    ],
    [
      "গুৱা",
      "হাট"
    ],
    [
      "ণ",
      "ি"
    ],
    [
      "বিৰু",
      "দ্ধে"
    ],
    [
      "সম",
      "য়"
    ],
    [
      "।",
      "লগতে"
    ],
    [
      "দু",
      "ৰ্"
    ],
    [
      "এ",
      "নে"
    ],
    [
      "এ",
      "জন"
    ],
    [
      "যে",
      ","
    ],
    [
      "বিশ",
      "েষ"
    ],
    [
      "ভা",
      "ৱ"
    ],
    [
      "ব",
      "োৰ"
    ],
    [
      "কৰি",
      "ছিল"
    ],
    [
      "অনুষ্ঠ",
      "ান"
    ],
    [
      "ম",
      "তে"
    ],
    [
      "জিল",
      "াৰ"
    ],
    [
      "স",
      "্য"
    ],
    [
      "শ",
      "ৰ্"
    ],
    [
      "উল্লে",
      "খ"
    ],
    [
      "লো",
      "কে"
    ],
    [
      "মন্ত",
      "্ৰ"
    ],
    [
      "য",
      "োৱা"
    ],
    [
      "ক্ষে",
      "ত্ৰ"
    ],
    [
      "হিচা",
      "পে"
    ],
    [
      "প্ৰ",
      "ধান"
    ],
    [
      "ত",
      "ৰ"
    ],
    [
      "সকল",
      "ক"
    ],
    [
      "১",
      "০"
    ],
    [
      "াল",
      "ৰ"
    ],
    [
      "মা",
      "ণ"
    ],
    [
      "স",
      "ৰি"
    ],
    [
      "য",
      "ি"
    ],
    [
      "অভি",
      "যান"
    ],
    [
      "ফ",
      "ল"
    ],
    [
      "খন",
      "ত"
    ],
    [
      "ৃ",
      "ষ্টি"
    ],
    [
      "ছ",
      "া"
    ],
    [
      "ৰ্",
      "ভ"
    ],
    [
      "মুখ্য",
      "মন্ত্ৰী"
    ],
    [
      "োৱ",
      "ে"
    ],
    [
      "চাৰ",
      "ি"
    ],
    [
      "ছ",
      "ু"
    ],
    [
      "কৰি",
      "ছিল।"
    ],
    [
      "ভ",
      "ো"
    ],
    [
      "সা",
      "ং"
    ],
    [
      "ব্য",
      "া"
    ],
    [
      "ৌ",
      "ৰ"
    ],
    [
      "সা",
      "ম"
    ],
    [
      "ও",
      "পৰ"
    ],
    [
      "মনো",
      "জ"
    ],
    [
      "অনু",
      "সৰি"
    ],
    [
      "e",
      "s"
    ],
    [
      "্",
      "প"
    ],
    [
      "আ",
      "ছিল"
    ],
    [
      "পূৰ্",
      "ণ"
    ],
    [
      "আ",
      "হ"
    ],
    [
      "আৰক্ষ",
      "ীৰ"
    ],
    [
      "তি",
      "ক"
    ],
    [
      "চিকিত্‍",
      "স"
    ],
    [
      "দ",
      "্ব"
    ],
    [
      "দেশ",
      "ৰ"
    ],
    [
      "a",
      "m"
    ],
    [
      "ফ",
      "ে"
    ],
    [
      "গৰাক",
      "ীয়ে"
    ],
    [
      "হৈ",
      "ছিল"
    ],
    [
      "সং",
      "ঘট"
    ],
    [
      "নত",
      "ুন"
    ],
    [
      "হয়",
      "।"
    ],
    [
      "সংঘট",
      "িত"
    ],
    [
      "ুৱ",
      "াৰ"
    ],
    [
      "জ",
      "ৰি"
    ],
    [
      "ক্ৰ",
      "ি"
    ],
    [
      "ধ",
      "ী"
    ],
    [
      "উ",
      "দ্ধ"
    ],
    [
      "জন",
      "ক"
    ],
    [
      "পৰ",
      "ীক্ষ"
    ],
    [
      "ড",
      "া"
    ],
    [
      "ক",
      "য়"
    ],
    [
      "হৈ",
      "ছিল।"
    ],
    [
      "সং",
      "গ"
    ],
    [
      "আন",
      "হাতে"
    ],
    [
      "এ",
      "ছ"
    ],
    [
      "জী",
      "ৱ"
    ],
    [
      "প",
      "্র"
    ],
    [
      "না",
      "ম"
    ],
    [
      "সভা",
      "পতি"
    ],
    [
      "ো",
      "ষ"
    ],
    [
      "গ্ৰ",
      "া"
    ],
    [
      "ৰ",
      "ূ"
    ],
    [
      "য়",
      "ো"
    ],
    [
      "/",
      "মনোজ"
    ],
    [
      "ল",
      "ক্ষ"
    ],
    [
      "অ",
      "ংশ"
    ],
    [
      "্ত",
      "ি"
    ],
    [
      "a",
      "l"
    ],
    [
      "দ",
      "ৰ্শ"
    ],
    [
      "বৰ",
      "্ত"
    ],
    [
      "শা",
      "স"
    ],
    [
      "য়",
      "ক"
    ],
    [
      "টো",
      "ত"
    ],
    [
      "e",
      "d"
    ],
    [
      "াল",
      "ী"
    ],
    [
      "ম",
      "ধ্য"
    ],
    [
      "মহ",
      "িলা"
    ],
    [
      "খ",
      "্যা"
    ],
    [
      "থ",
      "ান"
    ],
    [
      "স",
      "ী"
    ],
    [
      "জ",
      "াত"
    ],
    [
      "চৰকাৰ",
      "ে"
    ],
    [
      "ধ",
      "ৰ"
    ],
    [
      "ম",
      "হা"
    ],
    [
      "পা",
      "ছ"
    ],
    [
      "্য",
      "ে"
    ],
    [
      "শ",
      "ী"
    ],
    [
      "অধ",
      "িক"
    ],
    [
      "গুৰ",
      "ুত"
    ],
    [
      "স্থ",
      "িতি"
    ],
    [
      "ভিত",
      "ৰত"
    ],
    [
      "অ",
      "ন্ত"
    ],
    [
      "াল",
      "ৈ"
    ],
    [
      "উল্লে",
      "খ্য"
    ],
    [
      "ঁ",
      "চ"
    ],
    [
      "স্বা",
      "স্থ"
    ],
    [
      "উদ্ধ",
      "াৰ"
    ],
    [
      "র",
      "্"
    ],
    [
      "সূ",
      "চ"
    ],
    [
      "ওপৰ",
      "ত"
    ],
    [
      "স",
      "ৃষ্টি"
    ],
    [
      "e",
      "n"
    ],
    [
      "প",
      "াই"
    ],
    [
      "স্বাস্থ",
      "্য"
    ],
    [
      "।",
      "আ"
    ],
    [
      "ট",
      "ক"
    ],
    [
      "সম্",
      "প"
    ],
    [
      "প্ৰ",
      "থম"
    ],
    [
      "ন",
      "্যা"
    ],
    [
      "ত",
      "ু"
    ],
    [
      "ক্ষ",
      "ম"
    ],
    [
      "অসম",
      "ৰ"
    ],
    [
      "কৰ",
      "িলে"
    ],
    [
      "ধাৰ",
      "ণ"
    ],
    [
      "মৃত্য",
      "ু"
    ],
    [
      "লা",
      "খ"
    ],
    [
      "মাজ",
      "ত"
    ],
    [
      "ক্ষেত্ৰ",
      "ত"
    ],
    [
      "স",
      "ন্দ"
    ],
    [
      "ক",
      "'"
    ],
    [
      "ী",
      "ক"
    ],
    [
      "উত",
      "্‍"
    ],
    [
      "ব",
      "ন্ধ"
    ],
    [
      "যদি",
      "ও"
    ],
    [
      "ফ",
      "ালে"
    ],
    [
      "১",
      "৯"
    ],
    [
      "বা",
      "ই"
    ],
    [
      "চ",
      "াল"
    ],
    [
      "ব",
      "ন"
    ],
    [
      "শ",
      "তা"
    ],
    [
      "বৰ্ত",
      "মান"
    ],
    [
      "প",
      "াল"
    ],
    [
      "ু",
      "ক্ত"
    ],
    [
      "সন্দ",
      "ৰ্ভ"
    ],
    [
      "হয়",
      "।"
    ],
    [
      "থা",
      "কি"
    ],
    [
      "মূল",
      "্য"
    ],
    [
      "ম",
      "াই"
    ],
    [
      "নে",
      "ত"
    ],
    [
      "না",
      "মৰ"
    ],
    [
      "s",
      "s"
    ],
    [
      "০",
      "০"
    ],
    [
      "সমূ",
      "হ"
    ],
    [
      "সমাচাৰ",
      "/"
    ],
    [
      "জন",
      "ৰ"
    ],
    [
      "নে",
      "তা"
    ],
    [
      "তি",
      "ৰ"
    ],
    [
      "ী",
      ","
    ],
    [
      "কৃ",
      "ষ"
    ],
    [
      "জ",
      "না"
    ],
    [
      "ব",
      "ো"
    ],
    [
      "ত",
      "থ"
    ],
    [
      "ব্য",
      "ক্তি"
    ],
    [
      "লগ",
      "ে"
    ],
    [
      "ট",
      "্ৰ"
    ],
    [
      "হ",
      "াত"
    ],
    [
      "o",
      "r"
    ],
    [
      "ব্যৱ",
      "স্থা"
    ],
    [
      "ান",
      "্"
    ],
    [
      "তথ",
      "্য"
    ],
    [
      "ৰ্",
      "ক"
    ],
    [
      "ং",
      "গ"
    ],
    [
      "শ",
      "্ব"
    ],
    [
      "সন্দৰ্ভ",
      "ত"
    ],
    [
      "লা",
      "গ"
    ],
    [
      "ৰ",
      "োগ"
    ],
    [
      "ক",
      "লি"
    ],
    [
      "দা",
      "বী"
    ],
    [
      "গ",
      "ৃ"
    ],
    [
      "শ",
      "্চ"
    ],
    [
      "ান",
      "ৰ"
    ],
    [
      "যু",
      "ক্ত"
    ],
    [
      "মা",
      "ধ্য"
    ],
    [
      "ত",
      "্যা"
    ],
    [
      "কি",
      "ছু"
    ],
    [
      "প্ৰ",
      "াৰ্থ"
    ],
    [
      "দ",
      "্ৰ"
    ],
    [
      "নি",
      "জৰ"
    ],
    [
      "ভ",
      "ে"
    ],
    [
      "ঘ",
      "োষ"
    ],
    [
      "যুৱ",
      "ক"
    ],
    [
      "ব",
      "ৰা"
    ],
    [
      "আ",
      "দি"
    ],
    [
      "ঠ",
      "ি"
    ],
    [
      "ৱে",
      "শ"
    ],
    [
      "অ",
      "হা"
    ],
    [
      "চৰকাৰ",
      "ৰ"
    ],
    [
      "বা",
      "হি"
    ],
    [
      "এতি",
      "য়া"
    ],
    [
      "ভ",
      "ৱ"
    ],
    [
      "য়",
      "ো"
    ],
    [
      "প্ৰতি",
      "বাদ"
    ],
    [
      "ঞ্",
      "জ"
    ],
    [
      "ম",
      "াত"
    ],
    [
      "পা",
      "দ"
    ],
    [
      "াত",
      "্ৰী"
    ],
    [
      "নি",
      "ৰ"
    ],
    [
      "ণ",
      "ত"
    ],
    [
      "শ",
      "ো"
    ],
    [
      "উচ",
      "্চ"
    ],
    [
      "কো",
      "টি"
    ],
    [
      "উ",
      "পা"
    ],
    [
      "পান",
      "ী"
    ],
    [
      "ঙ",
      "ৰ"
    ],
    [
      "জ",
      "নাই"
    ],
    [
      "সং",
      "খ্যা"
    ],
    [
      "গ",
      "ছ"
    ],
    [
      "'",
      "ল"
    ],
    [
      "দে",
      "হ"
    ],
    [
      "এ",
      "ন"
    ],
    [
      "কু",
      "মাৰ"
    ],
    [
      "ৰ",
      "ৰ"
    ],
    [
      "অঞ্চ",
      "ল"
    ],
    [
      "i",
      "on"
    ],
    [
      "জ",
      "ো"
    ],
    [
      "কেই",
      "বা"
    ],
    [
      "পু",
      "নৰ"
    ],
    [
      "ছ",
      "বি"
    ],
    [
      "ৱৰ",
      "্ত"
    ],
    [
      "তে",
      "ই"
    ],
    [
      "গ",
      "্"
    ],
    [
      "উত্ত",
      "ৰ"
    ],
    [
      "ব",
      "।"
    ],
    [
      "চ",
      "না"
    ],
    [
      "তি",
      "মধ্য"
    ],
    [
      "ট",
      "োৱে"
    ],
    [
      "বিভা",
      "গৰ"
    ],
    [
      "এ",
      "কা"
    ],
    [
      "িত",
      "্ৰ"
    ],
    [
      "দে",
      "খা"
    ],
    [
      "ভ",
      "াল"
    ],
    [
      "ঘ",
      "া"
    ],
    [
      "এ",
      "গৰাকী"
    ],
    [
      "বে",
      "দ"
    ],
    [
      "থা",
      "কে"
    ],
    [
      "প",
      "্"
    ],
    [
      "পৰি",
      "য়"
    ],
    [
      "মন্ত",
      "ব্য"
    ],
    [
      "সময়",
      "ত"
    ],
    [
      "শ",
      "ে"
    ],
    [
      "ৰাজ্য",
      "ৰ"
    ],
    [
      "i",
      "t"
    ],
    [
      "উ",
      "দ্য"
    ],
    [
      "স",
      "ভাৰ"
    ],
    [
      "দি",
      "য়া"
    ],
    [
      "এ",
      "কে"
    ],
    [
      "বিষ",
      "য়া"
    ],
    [
      "ক্ষ",
      "া"
    ],
    [
      "ব্যৱ",
      "সা"
    ],
    [
      "তেওঁ",
      "লোকৰ"
    ],
    [
      "সা",
      "ধাৰণ"
    ],
    [
      "প",
      "ক"
    ],
    [
      "ণ্",
      "ট"
    ],
    [
      "চল",
      "াই"
    ],
    [
      "স্",
      "ক"
    ],
    [
      "চ",
      "নৰ"
    ],
    [
      "তিমধ্য",
      "ে"
    ],
    [
      "ষ্ট",
      "া"
    ],
    [
      "।",
      "হিন্দুস্থান"
    ],
    [
      "ুৱ",
      "াই"
    ],
    [
      "সি",
      "দ্ধ"
    ],
    [
      "গুৰুত",
      "্ব"
    ],
    [
      "থ",
      "ি"
    ],
    [
      "ক",
      "ুৰ"
    ],
    [
      "।",
      "কিন্তু"
    ],
    [
      "প্ত",
      "াৰ"
    ],
    [
      "ৰ",
      "ঙ"
    ],
    [
      "স",
      "ক্ষম"
    ],
    [
      "চ",
      "লি"
    ],
    [
      "i",
      "c"
    ],
    [
      "ম",
      "িক"
    ],
    [
      "ল",
      "াৰ"
    ],
    [
      "ভ",
      "ৰ"
    ],
    [
      "দি",
      "য়ে"
    ],
    [
      "ই",
      "য়াৰ"
    ],
    [
      "নি",
      "শা"
    ],
    [
      "কাৰ্য",
      "সূচ"
    ],
    [
      "না",
      "থ"
    ],
    [
      "ক্ৰ",
      "ান্ত"
    ],
    [
      "ণ্ড",
      "ৰ"
    ],
    [
      "ক",
      "ত"
    ],
    [
      "াৰ",
      "া"
    ],
    [
      "খ",
      "িল"
    ],
    [
      "হ'",
      "ল"
    ],
    [
      "হ",
      "িত"
    ],
    [
      "স",
      "হা"
    ],
    [
      "প",
      "ৌৰ"
    ],
    [
      "শতা",
      "ংশ"
    ],
    [
      "অন",
      "্য"
    ],
    [
      "পূৰ্",
      "বে"
    ],
    [
      "স",
      "ভ"
    ],
    [
      "ৰা",
      "খি"
    ],
    [
      "স",
      "ুৰ"
    ],
    [
      "বিধা",
      "য়ক"
    ],
    [
      "জন",
      "ে"
    ],
    [
      "প",
      "ৰে"
    ],
    [
      "ফ",
      "ু"
    ],
    [
      "ভো",
      "ট"
    ],
    [
      "মু",
      "ঠ"
    ],
    [
      "এ",
      "ম"
    ],
    [
      "ক",
      "।"
    ],
    [
      "গৰাক",
      "ীৰ"
    ],
    [
      "ড",
      "ৰ"
    ],
    [
      "ন",
      "ং"
    ],
    [
      "শ",
      "িল"
    ],
    [
      "াল",
      "া"
    ],
    [
      "ম",
      "ী"
    ],
    [
      "ট",
      "াই"
    ],
    [
      "প্ৰা",
      "য়"
    ],
    [
      "মান",
      "ু"
    ],
    [
      "গ্ৰে",
      "প্তাৰ"
    ],
    [
      "ব্",
      "দ"
    ],
    [
      "ভা",
      "ষ"
    ],
    [
      "দ",
      "লৰ"
    ],
    [
      "সং",
      "বাদ"
    ],
    [
      "ক্ৰ",
      "েই"
    ],
    [
      "২",
      "২"
    ],
    [
      "অৱ",
      "শ"
    ],
    [
      "ঢ়",
      "ি"
    ],
    [
      "য়",
      "ন"
    ],
    [
      "দ",
      "িল"
    ],
    [
      "কৰ",
      "্"
    ],
    [
      "ট",
      "ু"
    ],
    [
      "বৰ্",
      "ষ"
    ],
    [
      "ৰ্",
      "ষ"
    ],
    [
      "১",
      "৫"
    ],
    [
      "শ",
      "োৰ"
    ],
    [
      ")",
      "।"
    ],
    [
      "বিদ্য",
      "ালয়"
    ],
    [
      "পু",
      "নি"
    ],
    [
      "কি",
      "শোৰ"
    ],
    [
      "অধ",
      "ি"
    ],
    [
      "ম",
      "িল"
    ],
    [
      "বি",
      "গত"
    ],
    [
      "স",
      "ৰ্"
    ],
    [
      "ঘোষ",
      "ণা"
    ],
    [
      "(",
      "A"
    ],
    [
      "দ",
      "ন্ত"
    ],
    [
      "কা",
      "ই"
    ],
    [
      "হ'ব",
      "।"
    ],
    [
      "জ",
      "য়"
    ],
    [
      "স",
      "ন্ত"
    ],
    [
      "ব",
      "ঢ়"
    ],
    [
      "ৰি",
      "ক"
    ],
    [
      "কংগ্ৰে",
      "ছ"
    ],
    [
      "াত",
      "্‍"
    ],
    [
      "পৰি",
      "স্থিতি"
    ],
    [
      "ড",
      "্ৰা"
    ],
    [
      "সম",
      "িতি"
    ],
    [
      "চ",
      "নত"
    ],
    [
      "গ",
      "ি"
    ],
    [
      "সম",
      "গ্ৰ"
    ],
    [
      "হত",
      "্যা"
    ],
    [
      "প",
      "োৱা"
    ],
    [
      "আ",
      "পো"
    ],
    [
      "গাঁ",
      "ৱৰ"
    ],
    [
      "আ",
      "ত"
    ],
    [
      "ম",
      "ন"
    ],
    [
      "আ",
      "মি"
    ],
    [
      "চ",
      "ন"
    ],
    [
      "ভূ",
      "মি"
    ],
    [
      "উ",
      "দ্"
    ],
    [
      "কল",
      "্প"
    ],
    [
      "ৰা",
      "ছি"
    ],
    [
      "ব",
      "জাৰ"
    ],
    [
      "প",
      "িত"
    ],
    [
      "লগ",
      "ত"
    ],
    [
      "চ",
      "্"
    ],
    [
      "ধ",
      "ু"
    ],
    [
      "াল",
      "ত"
    ],
    [
      "োৱ",
      "াত"
    ],
    [
      "অ",
      "'"
    ],
    [
      "শিক্ষ",
      "া"
    ],
    [
      "ইউ",
      "ক্ৰেই"
    ],
    [
      "ত",
      "দন্ত"
    ],
    [
      "য়",
      "ত"
    ],
    [
      "কৰ",
      "ো"
    ],
    [
      "ss",
      "am"
    ],
    [
      "জ",
      "্য"
    ],
    [
      "গো",
      "চৰ"
    ],
    [
      "্ৰা",
      "স"
    ],
    [
      "আ",
      "দ"
    ],
    [
      "পৰ",
      "্য"
    ],
    [
      "গুৱাহাট",
      "ী"
    ],
    [
      "ই",
      "ন"
    ],
    [
      "ল",
      "ু"
    ],
    [
      "সদ",
      "স্য"
    ],
    [
      "উ",
      "ন্ন"
    ],
    [
      "খ",
      "ু"
    ],
    [
      "অধ",
      "্য"
    ],
    [
      "ৱ",
      "ল"
    ],
    [
      "নিৰ্",
      "দেশ"
    ],
    [
      "ন",
      "ম্ব"
    ],
    [
      "ৱ",
      "াৰ্"
    ],
    [
      "্ব",
      "ান"
    ],
    [
      "ি",
      "ম"
    ],
    [
      "আ",
      "ছিল।"
    ],
    [
      "বি",
      "ৰো"
    ],
    [
      "হ",
      "ন"
    ],
    [
      "প্ৰা",
      "প্ত"
    ],
    [
      "পাৰে",
      "।"
    ],
    [
      "ধ",
      "িক"
    ],
    [
      "ক",
      "ী"
    ],
    [
      "হা",
      "জাৰ"
    ],
    [
      "ন্ত",
      "্ৰ"
    ],
    [
      "ই",
      "য়াৰ"
    ],
    [
      "ব্যা",
      "হত"
    ],
    [
      "সাম",
      "গ্ৰ"
    ],
    [
      "ট",
      "ত"
    ],
    [
      "লাগ",
      "িব"
    ],
    [
      "প",
      "ত্ৰ"
    ],
    [
      "i",
      "r"
    ],
    [
      "ব্যৱ",
      "হাৰ"
    ],
    [
      "নিৰ্",
      "মাণ"
    ],
    [
      "জ",
      "ল"
    ],
    [
      "শ",
      "ং"
    ],
    [
      "সিদ্ধ",
      "ান্ত"
    ],
    [
      "স্",
      "ব"
    ],
    [
      "জ",
      "িত"
    ],
    [
      "থ",
      "ে"
    ],
    [
      "নি",
      "ক"
    ],
    [
      "ৱ",
      "ত"
    ],
    [
      "ল",
      "'"
    ],
    [
      "আগ",
      "বঢ়"
    ],
    [
      "u",
      "r"
    ],
    [
      "স",
      "ত"
    ],
    [
      "ম",
      "ই"
    ],
    [
      "ঙ",
      "্"
    ],
    [
      "গ",
      "ড়"
    ],
    [
      "হ",
      "াই"
    ],
    [
      "ফ",
      "া"
    ],
    [
      "য়",
      "াই"
    ],
    [
      "ছ",
      "াত্ৰী"
    ],
    [
      "শ",
      "ক্তি"
    ],
    [
      "ৰাই",
      "জে"
    ],
    [
      "দে",
      "ৱ"
    ],
    [
      "২",
      "৪"
    ],
    [
      "এ",
      "ফ"
    ],
    [
      "দ",
      "লে"
    ],
    [
      "ক",
      "র"
    ],
    [
      "h",
      "e"
    ],
    [
      "য",
      "াৰ"
    ],
    [
      "ঠ",
      "া"
    ],
    [
      "চিকিত্‍",
      "সা"
    ],
    [
      "।ই",
      "য়াৰ"
    ],
    [
      "N",
      "O"
    ],
    [
      "শি",
      "ৱ"
    ],
    [
      "শ",
      "্ৰী"
    ],
    [
      "প",
      "ুৱা"
    ],
    [
      "ঠ",
      "ন"
    ],
    [
      "চ",
      "ো"
    ],
    [
      "আ",
      "ক্ৰম"
    ],
    [
      "প্ৰ",
      "স্ত"
    ],
    [
      "প",
      "ক্ষ"
    ],
    [
      "খ",
      "ল"
    ],
    [
      "সময়",
      "ত"
    ],
    [
      "িত",
      "্ব"
    ],
    [
      "নি",
      "য়"
    ],
    [
      "হি",
      "মন্ত"
    ],
    [
      "ৰা",
      "ম"
    ],
    [
      "য়",
      "ক"
    ],
    [
      "আ",
      "টক"
    ],
    [
      "উ",
      "ন্"
    ],
    [
      "শ",
      "ৰ"
    ],
    [
      "ৰে",
      "ল"
    ],
    [
      "থ",
      "কাৰ"
    ],
    [
      "অ",
      "ব্যাহত"
    ],
    [
      "আ",
      "পুনি"
    ],
    [
      "প্ৰ",
      "শাস"
    ],
    [
      "প্ৰধান",
      "মন্ত্ৰী"
    ],
    [
      "পৰি",
      "ষ"
    ],
    [
      "বৃ",
      "হত"
    ],
    [
      "চৰকাৰ",
      "ী"
    ],
    [
      "ফ",
      "ি"
    ],
    [
      "বি",
      "ধান"
    ],
    [
      "ল",
      "োৱা"
    ],
    [
      "জ",
      "ব্দ"
    ],
    [
      "ৰাষ্ট্ৰ",
      "পতি"
    ],
    [
      "হ",
      "ো"
    ],
    [
      "দি",
      "য়া"
    ],
    [
      "।",
      "উল্লেখ্য"
    ],
    [
      "গ",
      "গৈ"
    ],
    [
      "ভা",
      "গ"
    ],
    [
      "ভাৰত",
      "ীয়"
    ],
    [
      "আ",
      "ল"
    ],
    [
      "ান",
      "ে"
    ],
    [
      "ব",
      "ল"
    ],
    [
      "উ",
      "ক্ত"
    ],
    [
      "নেত",
      "ৃত"
    ],
    [
      "দিল",
      "্"
    ],
    [
      "ছ",
      "ো"
    ],
    [
      "e",
      ")"
    ],
    [
      "ৰা",
      "জন"
    ],
    [
      "সম্",
      "পাদ"
    ],
    [
      "উত",
      "্"
    ],
    [
      "খ",
      "বৰ"
    ],
    [
      "২",
      "১"
    ],
    [
      "ক",
      "ম"
    ],
    [
      "ৰাই",
      "জৰ"
    ],
    [
      "বিজেপি",
      "ৰ"
    ],
    [
      "পু",
      "ত্ৰ"
    ],
    [
      "আ",
      "ক্ৰান্ত"
    ],
    [
      "গ",
      "ণ"
    ],
    [
      "পৰি",
      "ছে"
    ],
    [
      "যোগ",
      "্য"
    ],
    [
      "কাৰ",
      "ণ"
    ],
    [
      "কৰ্ম",
      "চাৰ"
    ],
    [
      "দ",
      "াৰ"
    ],
    [
      "আহ",
      "্বান"
    ],
    [
      "জ",
      "য়"
    ],
    [
      "এতি",
      "য়া"
    ],
    [
      "য়",
      "।"
    ],
    [
      "স",
      "াৰ"
    ],
    [
      "৩",
      "০"
    ],
    [
      "চে",
      "ষ্টা"
    ],
    [
      "শু",
      "ভ"
    ],
    [
      "অনুষ্ঠান",
      "ত"
    ],
    [
      "দুৰ্",
      "ঘটনা"
    ],
    [
      "ক্ষ",
      "িত"
    ],
    [
      "মু",
      "কলি"
    ],
    [
      "ৰাষ্ট্ৰ",
      "ীয়"
    ],
    [
      "জ",
      "ুল"
    ],
    [
      "১",
      "২"
    ],
    [
      "পৰীক্ষ",
      "া"
    ],
    [
      "প্ৰা",
      "য়"
    ],
    [
      "ত",
      "্‍"
    ],
    [
      "ক্ত",
      "ন"
    ],
    [
      "কাৰ",
      "্"
    ],
    [
      "l",
      "e"
    ],
    [
      "ৰা",
      "খ"
    ],
    [
      "১",
      "৮"
    ],
    [
      "লোক",
      "ক"
    ],
    [
      "ড়",
      "িত"
    ],
    [
      "দ",
      "ূ"
    ],
    [
      "শি",
      "শু"
    ],
    [
      "ড্ৰা",
      "গছ"
    ],
    [
      "।",
      "আনহাতে"
    ],
    [
      "ক",
      "ৃত"
    ],
    [
      "পিছ",
      "তে"
    ],
    [
      "বৰ",
      "পে"
    ],
    [
      "ই",
      "তিমধ্যে"
    ],
    [
      "সভ",
      "াত"
    ],
    [
      "লক্ষ",
      "্য"
    ],
    [
      "দা",
      "য়"
    ],
    [
      "চ",
      "াই"
    ],
    [
      "উত্",
      "থা"
    ],
    [
      "অ",
      "ৰ্থ"
    ],
    [
      "ি",
      "ৰ"
    ],
    [
      "স্থান",
      "ীয়"
    ],
    [
      "জ",
      "াই"
    ],
    [
      "কংগ্ৰে",
      "ছৰ"
    ],
    [
      "কৰ",
      "্ত"
    ],
    [
      "ভি",
      "ড"
    ],
    [
      "শিক্ষ",
      "ক"
    ],
    [
      "্ত",
      "ৰ"
    ],
    [
      "গৃ",
      "হ"
    ],
    [
      "সমূ",
      "হৰ"
    ],
    [
      "দ্",
      "বিত"
    ],
    [
      "নি",
      "য়"
    ],
    [
      "প্ৰে",
      "ৰণ"
    ],
    [
      "আ",
      "ঁচ"
    ],
    [
      "ট",
      "কাৰ"
    ],
    [
      "সন্",
      "মুখ"
    ],
    [
      "সং",
      "খ্য"
    ],
    [
      "।",
      "তেওঁ"
    ],
    [
      "অৱশ",
      "্যে"
    ],
    [
      "প্ৰা",
      "ক্তন"
    ],
    [
      "খে",
      "ল"
    ],
    [
      "মাৰ",
      "্চ"
    ],
    [
      "খ",
      "াৰ"
    ],
    [
      "আৰক্ষ",
      "ীয়ে"
    ],
    [
      "দু",
      "ই"
    ],
    [
      "আ",
      "লো"
    ],
    [
      "গৈ",
      "ছে।"
    ],
    [
      "p",
      "o"
    ],
    [
      "ণ",
      "ী"
    ],
    [
      "ৈ",
      "তিক"
    ],
    [
      "পুৰ",
      "ৰ"
    ],
    [
      "মুখ্য",
      "মন্ত্ৰ"
    ],
    [
      "উ",
      "পৰি"
    ],
    [
      "পৰি",
      "য়"
    ],
    [
      "ং",
      "ক"
    ],
    [
      "সম",
      "ষ্টি"
    ],
    [
      "পঢ়ক",
      ":"
    ],
    [
      "সম্প",
      "ৰ্ক"
    ],
    [
      "১",
      "৪"
    ],
    [
      "নাই",
      "।"
    ],
    [
      "দৰ্শ",
      "ন"
    ],
    [
      "ঘট",
      "নাৰ"
    ],
    [
      "প",
      "াত"
    ],
    [
      "উ",
      "দ"
    ],
    [
      "মহ",
      "ান"
    ],
    [
      "দি",
      "ব"
    ],
    [
      "ষ্ঠ",
      "ান"
    ],
    [
      "কে",
      "ৱল"
    ],
    [
      "লি",
      "ক"
    ],
    [
      "উদ্য",
      "োগ"
    ],
    [
      "বাৰ",
      "ৰ"
    ],
    [
      "গৈ",
      "ছে"
    ],
    [
      "আত",
      "্ম"
    ],
    [
      "ভ",
      "াই"
    ],
    [
      "দি",
      "নৰ"
    ],
    [
      "লা",
      "গে"
    ],
    [
      "নি",
      "জ"
    ],
    [
      "অ",
      "ৰ্"
    ],
    [
      "জ",
      "ন্"
    ],
    [
      "যু",
      "ক্তি"
    ],
    [
      "স",
      "্যা"
    ],
    [
      "প্ৰাৰ্থ",
      "ী"
    ],
    [
      "ৰাষ্ট্ৰ",
      "ীয়"
    ],
    [
      "য়",
      "ন"
    ],
    [
      "শ",
      "ান্ত"
    ],
    [
      "হ",
      "স্"
    ],
    [
      "অৱ",
      "স্থ"
    ],
    [
      "ণ্ড",
      "ি"
    ],
    [
      "ভাৰত",
      "ৰ"
    ],
    [
      "ধ",
      "ীন"
    ],
    [
      "গ",
      "তি"
    ],
    [
      "দু",
      "টা"
    ],
    [
      "সি",
      "ং"
    ],
    [
      "য়",
      "াই"
    ],
    [
      "সম্পাদ",
      "ক"
    ],
    [
      "১",
      "১"
    ],
    [
      "সৰ",
      "বৰা"
    ],
    [
      "ল",
      "ং"
    ],
    [
      "সম্",
      "পূৰ্ণ"
    ],
    [
      "গ",
      "ুল"
    ],
    [
      "শ",
      "্য"
    ],
    [
      "খা",
      "দ্য"
    ],
    [
      "চ",
      "ৌ"
    ],
    [
      "ৰ",
      "ী"
    ],
    [
      "o",
      "f"
    ],
    [
      "চ",
      "হৰ"
    ],
    [
      "আ",
      "মাৰ"
    ],
    [
      "ধৰ",
      "ণৰ"
    ],
    [
      "দা",
      "খিল"
    ],
    [
      "জ",
      "ড়িত"
    ],
    [
      "থাকি",
      "ব"
    ],
    [
      "ত",
      "ম"
    ],
    [
      "য়ো",
      "জন"
    ],
    [
      "নেতৃত",
      "্ব"
    ],
    [
      "আহি",
      "ছে"
    ],
    [
      "কৰ",
      "াত"
    ],
    [
      "মতে",
      ","
    ],
    [
      "দে",
      "ও"
    ],
    [
      "আপো",
      "নাৰ"
    ],
    [
      "দ্ব",
      "াৰা"
    ],
    [
      "দেশ",
      "ত"
    ],
    [
      "শৰ্",
      "মা"
    ],
    [
      "শ্ৰ",
      "ে"
    ],
    [
      "বি",
      "হ"
    ],
    [
      "in",
      "g"
    ],
    [
      "প্ৰ",
      "ি"
    ],
    [
      "সো",
      "ম"
    ],
    [
      "ধ",
      "ৰ্"
    ],
    [
      "বিদ্যালয়",
      "ৰ"
    ],
    [
      "৫",
      "০"
    ],
    [
      "র",
      "া"
    ],
    [
      "শৰ্",
      "মাই"
    ],
    [
      "ল",
      "ীত"
    ],
    [
      "en",
      "t"
    ],
    [
      "ৰাজ",
      "হ"
    ],
    [
      "বুলি",
      "ও"
    ],
    [
      "ন",
      "ীৰ"
    ],
    [
      "।ই",
      "ফালে"
    ],
    [
      "চা",
      "হ"
    ],
    [
      "আ",
      "হত"
    ],
    [
      "দা",
      "স"
    ],
    [
      "সম",
      "স্যা"
    ],
    [
      "বৃহত",
      "্‍"
    ],
    [
      "মৃত",
      "দেহ"
    ],
    [
      "ন",
      "গাঁও"
    ],
    [
      "এ",
      "ল"
    ],
    [
      "বিষ",
      "য়া"
    ],
    [
      "্য",
      "ৰ"
    ],
    [
      "শে",
      "হত"
    ],
    [
      "টি",
      "ৰ"
    ],
    [
      "ক্ৰ",
      "ী"
    ],
    [
      "2",
      "0"
    ],
    [
      "য়",
      "াত"
    ],
    [
      "মো",
      "দ"
    ],
    [
      "দ",
      "ৈ"
    ],
    [
      "চ",
      "লা"
    ],
    [
      "a",
      "p"
    ],
    [
      "বি",
      "মান"
    ],
    [
      "ষ্ট",
      "ে"
    ],
    [
      "বিভা",
      "গ"
    ],
    [
      "আ",
      "ঁ"
    ],
    [
      "ক্ষ",
      "তি"
    ],
    [
      "i",
      "s"
    ],
    [
      "শ",
      "েষ"
    ],
    [
      "জীৱ",
      "ন"
    ],
    [
      "নী",
      "তি"
    ],
    [
      "'",
      "'"
    ],
    [
      "তী",
      "ব্ৰ"
    ],
    [
      "সা",
      "গৰ"
    ],
    [
      "জুল",
      "াই"
    ],
    [
      "r",
      "o"
    ],
    [
      "কৰ",
      "ণ"
    ],
    [
      "ম",
      "িত"
    ],
    [
      "সা",
      "হিত"
    ],
    [
      "ৰাজ্য",
      "িক"
    ],
    [
      "ত",
      "কৈ"
    ],
    [
      "দি",
      "ৱ"
    ],
    [
      "কৰিব",
      "।"
    ],
    [
      "াল",
      "ক"
    ],
    [
      "মাত",
      "ৃ"
    ],
    [
      "অংশ",
      "গ্ৰহণ"
    ],
    [
      "না",
      "গ"
    ],
    [
      "কেন্দ্ৰ",
      "ীয়"
    ],
    [
      "সহ",
      "যোগ"
    ],
    [
      "পৰ",
      "্যা"
    ],
    [
      "য়",
      "ুক্ত"
    ],
    [
      "চ",
      "ক্ৰ"
    ],
    [
      "p",
      "e"
    ],
    [
      "ৰূ",
      "প"
    ],
    [
      "অ",
      "গ্"
    ],
    [
      "a",
      "g"
    ],
    [
      "বছৰ",
      "ৰ"
    ],
    [
      "বি",
      "চাৰি"
    ],
    [
      "ম",
      "াত্ৰ"
    ],
    [
      "বৈ",
      "ঠ"
    ],
    [
      "তু",
      "লি"
    ],
    [
      "ঙ",
      "ি"
    ],
    [
      "হ",
      "ী"
    ],
    [
      "a",
      "s"
    ],
    [
      "প",
      "াৰ্"
    ],
    [
      "r",
      "e"
    ],
    [
      "ত",
      "্য"
    ],
    [
      "জ্ঞ",
      "া"
    ],
    [
      "ন",
      ","
    ],
    [
      "জ্ঞ",
      "ান"
    ],
    [
      "ব",
      "জাত"
    ],
    [
      "ব্য",
      "স্ত"
    ],
    [
      "অগ্",
      "নি"
    ],
    [
      "ব",
      "ুৰ"
    ],
    [
      "আ",
      "ন্ত"
    ],
    [
      "পাছ",
      "ত"
    ],
    [
      "ক্",
      "স"
    ],
    [
      "জ্য",
      "ো"
    ],
    [
      "লগ",
      "া"
    ],
    [
      "ন",
      "ক"
    ],
    [
      "আ",
      "স"
    ],
    [
      "পান",
      "ীৰ"
    ],
    [
      "ৰা",
      "ং"
    ],
    [
      "১",
      "৬"
    ],
    [
      "প",
      "ৃ"
    ],
    [
      "এ",
      "প্ৰ"
    ],
    [
      "বিৰো",
      "ধী"
    ],
    [
      "'",
      "ত"
    ],
    [
      "না",
      "ত"
    ],
    [
      "মহান",
      "গৰ"
    ],
    [
      "বেদ",
      "ন"
    ],
    [
      "এপ্ৰ",
      "িল"
    ],
    [
      "গ্ৰা",
      "ম"
    ],
    [
      "দি",
      "য়াৰ"
    ],
    [
      "গা",
      "ড়"
    ],
    [
      "বি",
      "হু"
    ],
    [
      "সন্",
      "ধান"
    ],
    [
      "সৰবৰা",
      "হ"
    ],
    [
      "থান",
      "াৰ"
    ],
    [
      "দ",
      "ক্ষ"
    ],
    [
      "শ",
      "নি"
    ],
    [
      "য়ো",
      "জন"
    ],
    [
      "তেওঁ",
      "লোকে"
    ],
    [
      "ও",
      "চৰ"
    ],
    [
      "ঠ",
      "াই"
    ],
    [
      "একা",
      "ংশ"
    ],
    [
      "য়",
      "ৰ"
    ],
    [
      "য",
      "াত"
    ],
    [
      "হ",
      "্ৰাস"
    ],
    [
      "স্ত",
      "্ৰ"
    ],
    [
      "বু",
      "ধ"
    ],
    [
      "ো",
      "ল"
    ],
    [
      "লগ",
      "ীয়া"
    ],
    [
      "বা",
      "দি"
    ],
    [
      "কে",
      "ট"
    ],
    [
      "তেওঁ",
      "ক"
    ],
    [
      "য়",
      "।"
    ],
    [
      "ং",
      "কৰ"
    ],
    [
      "অন্ত",
      "ৰ্"
    ],
    [
      "অৱস্থ",
      "াত"
    ],
    [
      "i",
      "l"
    ],
    [
      "গৰাকী",
      "ক"
    ],
    [
      "কা",
      "মৰ"
    ],
    [
      "কৃষ",
      "ি"
    ],
    [
      "ক",
      "াল"
    ],
    [
      "ঘৰ",
      "ৰ"
    ],
    [
      "উত্থা",
      "পন"
    ],
    [
      "পাল",
      "ন"
    ],
    [
      "অনুসৰি",
      ","
    ],
    [
      "ঙ",
      "ল"
    ],
    [
      "ৱাৰ্",
      "ড"
    ],
    [
      "বাহ",
      "ন"
    ],
    [
      "স্",
      "কৃ"
    ],
    [
      "i",
      "d"
    ],
    [
      "য়",
      "ত"
    ],
    [
      "১",
      "৭"
    ],
    [
      "জানিব",
      "লৈ"
    ],
    [
      "c",
      "t"
    ],
    [
      "নি",
      "শ্চ"
    ],
    [
      "সাং",
      "বাদি"
    ],
    [
      "শিল",
      "্প"
    ],
    [
      "যু",
      "দ্ধ"
    ],
    [
      "উপ",
      "ল"
    ],
    [
      "ভ",
      "্ৰ"
    ],
    [
      "অধ্য",
      "ক্ষ"
    ],
    [
      "ঘ",
      "াত"
    ],
    [
      "হস্",
      "পতি"
    ],
    [
      "বৃ",
      "হস্পতি"
    ],
    [
      "A",
      "S"
    ],
    [
      "কৰ্ম",
      "ী"
    ],
    [
      "য়",
      "াত"
    ],
    [
      "ৰা",
      "শি"
    ],
    [
      "জ্যো",
      "তি"
    ],
    [
      "স্থা",
      "পন"
    ],
    [
      "মা",
      "ণৰ"
    ],
    [
      "ন্দ",
      "ৰ"
    ],
    [
      "ৱৰ্ত",
      "ী"
    ],
    [
      "শ্",
      "বে"
    ],
    [
      "গুৰুত্ব",
      "পূৰ্ণ"
    ],
    [
      "অধ",
      "ী"
    ],
    [
      "a",
      "d"
    ],
    [
      "প",
      "ঞ্চ"
    ],
    [
      "ম",
      "ঙল"
    ],
    [
      "সূ",
      "ত্ৰ"
    ],
    [
      "জ",
      "্ব"
    ],
    [
      "য",
      "থে"
    ],
    [
      "প্ৰ",
      "শ্"
    ],
    [
      "ব",
      "ড়"
    ],
    [
      "বাৰ",
      "ী"
    ],
    [
      "সে",
      "ৱা"
    ],
    [
      "সং",
      "ক্ৰম"
    ],
    [
      "কেন্দ্ৰ",
      "ীয়"
    ],
    [
      "পা",
      "ঠ"
    ],
    [
      "ক্ষে",
      "প"
    ],
    [
      "ই",
      "ছ"
    ],
    [
      "ব্ৰ",
      "ুৱাৰ"
    ],
    [
      "(A",
      "ssam"
    ],
    [
      "সী",
      "মান"
    ],
    [
      "ভৰ",
      "্তি"
    ],
    [
      "যোগ",
      "ে"
    ],
    [
      "ক",
      "ট"
    ],
    [
      "কা",
      "ণ্ড"
    ],
    [
      "স্",
      "প"
    ],
    [
      "ন",
      "ৱ"
    ],
    [
      "াৰ",
      "ৰ"
    ],
    [
      "ান",
      "ি"
    ],
    [
      "২",
      "৫"
    ],
    [
      "an",
      "d"
    ],
    [
      "পত",
      "্"
    ],
    [
      "ই",
      "ক"
    ],
    [
      "এই",
      "বাৰ"
    ],
    [
      "আ",
      "লোক"
    ],
    [
      "t",
      "o"
    ],
    [
      "ব্যৱসা",
      "য়"
    ],
    [
      "তি",
      "য়া"
    ],
    [
      "বিষ",
      "য়"
    ],
    [
      "আলো",
      "চনা"
    ],
    [
      "লা",
      "ম"
    ],
    [
      "ভাৰত",
      "ীয়"
    ],
    [
      "নি",
      "হত"
    ],
    [
      "পৰি",
      "চাল"
    ],
    [
      "স",
      "ঞ্চ"
    ],
    [
      "বিষ",
      "য়ে"
    ],
    [
      "ঞ্",
      "জা"
    ],
    [
      "ধ",
      "্ব"
    ],
    [
      "ম",
      "ণি"
    ],
    [
      "১",
      "৩"
    ],
    [
      "ন",
      "গৰ"
    ],
    [
      "ন্",
      "দি"
    ],
    [
      "যথে",
      "ষ্ট"
    ],
    [
      "পৰি",
      "ৱেশ"
    ],
    [
      "ফে",
      "ব্ৰুৱাৰ"
    ],
    [
      "ন",
      "হয়"
    ],
    [
      "সমষ্টি",
      "ৰ"
    ],
    [
      "ু",
      "তি"
    ],
    [
      "দা",
      "য়"
    ],
    [
      "ত",
      "াত"
    ],
    [
      "সোম",
      "বাৰে"
    ],
    [
      "খ",
      "াত"
    ],
    [
      "বি",
      "পৰ"
    ],
    [
      "জন্",
      "ম"
    ],
    [
      "খ",
      "ৰ"
    ],
    [
      "উল্লেখ",
      "যোগ্য"
    ],
    [
      "স",
      "িক"
    ],
    [
      "অন্তৰ্",
      "গত"
    ],
    [
      "ূ",
      "প"
    ],
    [
      "ী",
      "তে"
    ],
    [
      "আজি",
      "ৰ"
    ],
    [
      "শ",
      "াৰ"
    ],
    [
      "ভা",
      "বে"
    ],
    [
      "ল",
      "ীৰ"
    ],
    [
      "সমিতি",
      "ৰ"
    ],
    [
      "অভি",
      "যুক্ত"
    ],
    [
      "চ",
      "্চ"
    ],
    [
      "র",
      "ে"
    ],
    [
      "পা",
      "ঁচ"
    ],
    [
      "মে",
      "ন"
    ],
    [
      "নিৰ্বাচ",
      "নত"
    ],
    [
      "কৰো",
      "না"
    ],
    [
      "ছাত্ৰ",
      "-"
    ],
    [
      "ভ",
      "োগ"
    ],
    [
      "ৰাই",
      "জ"
    ],
    [
      "পৰিয়",
      "ালৰ"
    ],
    [
      "সমা",
      "জ"
    ],
    [
      "িব",
      "লৈ"
    ],
    [
      "স্থান",
      "ত"
    ],
    [
      "কাৰ্যসূচ",
      "ী"
    ],
    [
      "উপা",
      "য়ুক্ত"
    ],
    [
      "ঘ",
      "ৰত"
    ],
    [
      "প্ৰ",
      "চাৰ"
    ],
    [
      "ান",
      "া"
    ],
    [
      "শি",
      "ষ্ট"
    ],
    [
      "ক",
      "িল"
    ],
    [
      "দে",
      "খ"
    ],
    [
      "ৱ",
      "াৰ"
    ],
    [
      "ম",
      "াল"
    ],
    [
      "at",
      "ion"
    ],
    [
      "অঞ্চ",
      "লত"
    ],
    [
      "দি",
      "য়ে"
    ],
    [
      "আ",
      "নি"
    ],
    [
      "ীৰ",
      "ে"
    ],
    [
      "নম্ব",
      "ৰ"
    ],
    [
      "ভি",
      "ডি"
    ],
    [
      "য়",
      "তে"
    ],
    [
      "টু",
      "ই"
    ],
    [
      "দ",
      "ত"
    ],
    [
      "ছ",
      "াৰ"
    ],
    [
      "তে",
      "নে"
    ],
    [
      "কে",
      "ল"
    ],
    [
      "ধ",
      "ৰা"
    ],
    [
      "কা",
      "ষ"
    ],
    [
      "শ",
      "ত"
    ],
    [
      "ক",
      "ৌ"
    ],
    [
      "বুধ",
      "বাৰে"
    ],
    [
      "বি",
      "ৰ"
    ],
    [
      "ক",
      "োৱা"
    ],
    [
      "পিত",
      "ৃ"
    ],
    [
      "আ",
      "ম"
    ],
    [
      "ৰ্",
      "ঘ"
    ],
    [
      "ভাৰত",
      "ত"
    ],
    [
      "ন",
      "োৱাৰ"
    ],
    [
      "ালৈ",
      "কে"
    ],
    [
      "ালয়",
      "ৰ"
    ],
    [
      "চ",
      "ক"
    ],
    [
      "মাজ",
      "তে"
    ],
    [
      "সামগ্ৰ",
      "ী"
    ],
    [
      "নিৰ্বাচ",
      "নৰ"
    ],
    [
      "পাৰ",
      "ি"
    ],
    [
      "নিৰ্বাচ",
      "ন"
    ],
    [
      "জন",
      "োৱা"
    ],
    [
      "ৱ",
      "ান"
    ],
    [
      "চ",
      "ী"
    ],
    [
      "অধী",
      "নত"
    ],
    [
      "প",
      "শ্চ"
    ],
    [
      "শিক্ষ",
      "াৰ্থ"
    ],
    [
      "চ",
      "িত"
    ],
    [
      "স্ক",
      "ুল"
    ],
    [
      "প্ৰতি",
      "যোগ"
    ],
    [
      "সম্",
      "ভাৱ"
    ],
    [
      "ইউক্ৰেই",
      "নৰ"
    ],
    [
      "ন",
      "ৈ"
    ],
    [
      "হ",
      "ক"
    ],
    [
      "ন্",
      "ট"
    ],
    [
      "ফ",
      "টো"
    ],
    [
      "লৈ",
      "কে"
    ],
    [
      "ৰ্",
      "ণ"
    ],
    [
      "চ",
      "ন্দ্ৰ"
    ],
    [
      "াল",
      "ো"
    ],
    [
      "ত",
      "ুল"
    ],
    [
      "মূল",
      "ক"
    ],
    [
      "অ",
      "না"
    ],
    [
      "হাত",
      "ত"
    ],
    [
      "শনি",
      "বাৰে"
    ],
    [
      "স",
      "ত্ৰ"
    ],
    [
      "বাদ",
      "ী"
    ],
    [
      "চ",
      "ৰ্"
    ],
    [
      "ব",
      "ছ"
    ],
    [
      "আক্ৰম",
      "ণ"
    ],
    [
      "ষ্",
      "ণ"
    ],
    [
      "স",
      "ফল"
    ],
    [
      "প",
      "ী"
    ],
    [
      "খ",
      "ো"
    ],
    [
      "বৃহস্পতি",
      "বাৰে"
    ],
    [
      "সাহিত",
      "্য"
    ],
    [
      "পৰিষ",
      "দৰ"
    ],
    [
      "ভিত",
      "্ত"
    ],
    [
      "বাবে",
      "ই"
    ],
    [
      "ভ্ৰ",
      "ম"
    ],
    [
      "য",
      "ো"
    ],
    [
      "ুৱ",
      "ে"
    ],
    [
      "দ",
      "ো"
    ],
    [
      "শু",
      "কুৰ"
    ],
    [
      "u",
      "n"
    ],
    [
      "আ",
      "লি"
    ],
    [
      "২",
      "৩"
    ],
    [
      "ক",
      "ন"
    ],
    [
      "r",
      "a"
    ],
    [
      "সাং",
      "সদ"
    ],
    [
      "ট",
      "্ৰা"
    ],
    [
      "নৰ",
      "ে"
    ],
    [
      "কা",
      "ত"
    ],
    [
      "অঞ্চ",
      "লৰ"
    ],
    [
      "কৰ্মচাৰ",
      "ী"
    ],
    [
      "বি",
      "শিষ্ট"
    ],
    [
      "'",
      "ৰ"
    ],
    [
      "T",
      "he"
    ],
    [
      "জৰি",
      "য়তে"
    ],
    [
      "চি",
      "ন্ত"
    ],
    [
      "কৃষ",
      "ক"
    ],
    [
      "স্",
      "ম"
    ],
    [
      "সংগ",
      "ঠন"
    ],
    [
      "২০",
      "২২"
    ],
    [
      "ৰাজন",
      "ৈতিক"
    ],
    [
      "পৰ",
      "িল"
    ],
    [
      "গৰাক",
      "ীয়ে"
    ],
    [
      "।ই",
      "য়াৰ"
    ],
    [
      "ৃ",
      "পক্ষ"
    ],
    [
      "খ",
      "নে"
    ],
    [
      "শ",
      "ইক"
    ],
    [
      "ব",
      "হ"
    ],
    [
      "ৰাজ্য",
      "ত"
    ],
    [
      "পশ্চ",
      "িম"
    ],
    [
      "নি",
      "ৰা"
    ],
    [
      "বিপৰ",
      "ীতে"
    ],
    [
      "ু",
      "ষ"
    ],
    [
      "গাঁ",
      "ৱত"
    ],
    [
      "উপৰি",
      "ও"
    ],
    [
      "দি",
      "ছে"
    ],
    [
      "ঝ",
      "াৰ"
    ],
    [
      "বিশ",
      "্"
    ],
    [
      "ঘা",
      "ট"
    ],
    [
      "অ",
      "পৰা"
    ],
    [
      "ৰা",
      "ণ"
    ],
    [
      "সংখ্য",
      "ক"
    ],
    [
      "ত",
      "ৰি"
    ],
    [
      "ই",
      "ণ্ডি"
    ],
    [
      "পথ",
      "াৰ"
    ],
    [
      "বৰ",
      "ষ"
    ],
    [
      "হে",
      "ৰ"
    ],
    [
      "ীয়া",
      "কৈ"
    ],
    [
      "সা",
      "মাজ"
    ],
    [
      "পথ",
      "ৰ"
    ],
    [
      "দেও",
      "বাৰে"
    ],
    [
      "o",
      "l"
    ],
    [
      "ম",
      "ণ্ড"
    ],
    [
      "তে",
      "জ"
    ],
    [
      "নিশ্চ",
      "িত"
    ],
    [
      "হা",
      "জৰি"
    ],
    [
      "শিৱ",
      "সাগৰ"
    ],
    [
      "ন্ত",
      "ে"
    ],
    [
      "ট",
      "ী"
    ],
    [
      "সো",
      "ণ"
    ],
    [
      "সামাজ",
      "িক"
    ],
    [
      "2",
      "2"
    ],
    [
      "ধ",
      "ে"
    ],
    [
      "সম",
      "ৰ্থ"
    ],
    [
      "আ",
      "ৱ"
    ],
    [
      "অ",
      "ৰু"
    ],
    [
      "সম",
      "্ব"
    ],
    [
      "অ",
      "ৰ"
    ],
    [
      "ষ",
      "ণ"
    ],
    [
      "যা",
      "ব"
    ],
    [
      "সৰ্",
      "ব"
    ],
    [
      "চি",
      "না"
    ],
    [
      "ন্দ",
      "া"
    ],
    [
      "f",
      "ir"
    ],
    [
      "স",
      "ৱ"
    ],
    [
      "্ত",
      "া"
    ],
    [
      "স",
      "দৰ"
    ],
    [
      "দী",
      "ৰ্ঘ"
    ],
    [
      "বিভা",
      "গে"
    ],
    [
      "ক",
      "ান"
    ],
    [
      "যা",
      "য়"
    ],
    [
      "শৰ",
      "ীৰ"
    ],
    [
      "ফ",
      "ো"
    ],
    [
      "উদ",
      "যা"
    ],
    [
      "সমাচাৰ/",
      "প্ৰকাশ"
    ],
    [
      "ক",
      "মি"
    ],
    [
      "বা",
      "ং"
    ],
    [
      "য়",
      "ৰ"
    ],
    [
      "টো",
      "ক"
    ],
    [
      "সন্",
      "থ"
    ],
    [
      "সু",
      "বিধা"
    ],
    [
      "পে",
      "ট্ৰ"
    ],
    [
      "এ",
      "লে"
    ],
    [
      "ালয়",
      "ৰ"
    ],
    [
      "প্ৰা",
      "ণ"
    ],
    [
      "পৰি",
      "ছে।"
    ],
    [
      "আ",
      "শা"
    ],
    [
      "বৰপে",
      "টা"
    ],
    [
      "o",
      "m"
    ],
    [
      "অসম",
      "ত"
    ],
    [
      "ৰে",
      "'ল"
    ],
    [
      "গু",
      "ৰি"
    ],
    [
      "ঘটনা",
      "স্থ"
    ],
    [
      "ক",
      ","
    ],
    [
      "মা",
      "হ"
    ],
    [
      "হ'",
      "লে"
    ],
    [
      ")",
      ","
    ],
    [
      "গৰ",
      "ু"
    ],
    [
      "অধ",
      "ীক্ষ"
    ],
    [
      "যোগ",
      "দান"
    ],
    [
      "বাহ",
      "ী"
    ],
    [
      "কল",
      "ে"
    ],
    [
      "উ",
      "ঠি"
    ],
    [
      "না",
      "মত"
    ],
    [
      "দু",
      "য়ো"
    ],
    [
      "po",
      "st"
    ],
    [
      "ৰ",
      "ং"
    ],
    [
      "গা",
      "ওঁ"
    ],
    [
      "ক্ৰ",
      "মে"
    ],
    [
      "নি",
      "যুক্তি"
    ],
    [
      "ত্ৰ",
      "ি"
    ],
    [
      "বৰষ",
      "ু"
    ],
    [
      "R",
      "T"
    ],
    [
      "কো",
      "ম্"
    ],
    [
      "প্ৰ",
      "দেশ"
    ],
    [
      "দক্ষ",
      "ি"
    ],
    [
      "ফ",
      "াই"
    ],
    [
      "য",
      "োৱাৰ"
    ],
    [
      "বৰ",
      "ুৱা"
    ],
    [
      "য",
      "োৰ"
    ],
    [
      "য়",
      "তে"
    ],
    [
      "মি",
      "টাৰ"
    ],
    [
      "স্থান",
      "ীয়"
    ],
    [
      "তি",
      "য়া"
    ],
    [
      "দু",
      "জন"
    ],
    [
      "fir",
      "st"
    ],
    [
      "দি",
      "নে"
    ],
    [
      "ান",
      "্য"
    ],
    [
      "ar",
      "ed"
    ],
    [
      "তাৰ",
      "ি"
    ],
    [
      "ন",
      "হয়"
    ],
    [
      "ব",
      "ঁ"
    ],
    [
      "I",
      "n"
    ],
    [
      "(Assam",
      "es"
    ],
    [
      "আহি",
      "ছে।"
    ],
    [
      "্ৰ",
      "ু"
    ],
    [
      "পথ",
      "ত"
    ],
    [
      "জাৰ",
      "ি"
    ],
    [
      "H",
      "E"
    ],
    [
      "সে",
      "না"
    ],
    [
      "কল",
      "া"
    ],
    [
      "জিল",
      "াত"
    ],
    [
      "ৰ",
      "হ"
    ],
    [
      "AS",
      "T"
    ],
    [
      "ৰ",
      "ক্ষা"
    ],
    [
      "শিল্প",
      "ী"
    ],
    [
      "সম্ভাৱ",
      "না"
    ],
    [
      "পঞ্চ",
      "া"
    ],
    [
      "ম",
      "োৰ"
    ],
    [
      "আ",
      "লী"
    ],
    [
      "টা",
      "ও"
    ],
    [
      "ান্ত",
      "ৰ"
    ],
    [
      "সম",
      "স্য"
    ],
    [
      "ap",
      "pe"
    ],
    [
      "শুকুৰ",
      "বাৰে"
    ],
    [
      "ক",
      "ঠ"
    ],
    [
      "শ্ব",
      "ৰ"
    ],
    [
      "প্ৰ",
      "ভাৱ"
    ],
    [
      "পাছ",
      "তে"
    ],
    [
      "জৰি",
      "য়তে"
    ],
    [
      "বিদ্য",
      "ুত"
    ],
    [
      "দি",
      "বলৈ"
    ],
    [
      "আন",
      "ন্দ"
    ],
    [
      "আঁচ",
      "নি"
    ],
    [
      "appe",
      "ared"
    ],
    [
      "NO",
      "RT"
    ],
    [
      "সঞ্চ",
      "ালক"
    ],
    [
      "বি",
      "চ"
    ],
    [
      "বা",
      "গি"
    ],
    [
      "NORT",
      "HE"
    ],
    [
      "NORTHE",
      "AST"
    ],
    [
      "e)",
      "."
    ],
    [
      "NO",
      "W"
    ],
    [
      "(Assames",
      "e)."
    ],
    [
      "জান",
      "ুৱাৰ"
    ],
    [
      "কৰ্ত",
      "ৃপক্ষ"
    ],
    [
      "উ",
      "জ"
    ],
    [
      "অন্য",
      "ান্য"
    ],
    [
      "ড",
      "ু"
    ],
    [
      "ল",
      "ক"
    ],
    [
      "ড়",
      "া"
    ],
    [
      "ড",
      "িব"
    ],
    [
      "চো",
      "ৰাং"
    ],
    [
      "ং",
      "স"
    ],
    [
      "সং",
      "যোগ"
    ],
    [
      "জনা",
      "য়"
    ],
    [
      "আ",
      "গত"
    ],
    [
      "ম",
      "ন্দি"
    ],
    [
      "ষ্ট",
      "াৰ"
    ],
    [
      "গ",
      "ী"
    ],
    [
      "গুৱাহাট",
      "ীৰ"
    ],
    [
      "প্ত",
      "া"
    ],
    [
      "থম",
      "িক"
    ],
    [
      "পৰ",
      "ৱৰ্তী"
    ],
    [
      "মে",
      "ৰি"
    ],
    [
      "ীয়",
      "াৰ"
    ],
    [
      "উদ্",
      "দেশ"
    ],
    [
      "তে",
      "ন্তে"
    ],
    [
      "অ",
      "প"
    ],
    [
      "ো",
      "ধন"
    ],
    [
      "বৈ",
      "ধ"
    ],
    [
      "প্ৰশ্",
      "ন"
    ],
    [
      "দিন",
      "টো"
    ],
    [
      "খ",
      "ণ্ড"
    ],
    [
      "ডিব",
      "্ৰু"
    ],
    [
      "গ",
      "াৰ"
    ],
    [
      "বিষ",
      "য়ে"
    ],
    [
      "শী",
      "ৰ্ষ"
    ],
    [
      "খি",
      "নি"
    ],
    [
      "যোৰ",
      "হাট"
    ],
    [
      "ন্",
      "থ"
    ],
    [
      "ট",
      "্"
    ],
    [
      "বে",
      "শ"
    ],
    [
      "ব",
      "ীৰ"
    ],
    [
      "সং",
      "গ্ৰহ"
    ],
    [
      "/",
      "আলোক"
    ],
    [
      "ঘ",
      "াই"
    ],
    [
      "ম",
      "ৰি"
    ],
    [
      "কৰ",
      "ী"
    ],
    [
      "খ",
      "োৱা"
    ],
    [
      "জা",
      "তি"
    ],
    [
      "সাম",
      "ৰিক"
    ],
    [
      "অভি",
      "ন"
    ],
    [
      "r",
      "i"
    ],
    [
      "কি",
      "স্ত"
    ],
    [
      "সন্",
      "দেহ"
    ],
    [
      "জ",
      "্যে"
    ],
    [
      "ও",
      "লাই"
    ],
    [
      "দা",
      "ম"
    ],
    [
      "ট",
      "িক"
    ],
    [
      "বে",
      "ছি"
    ],
    [
      "কাৰ",
      "ৰ"
    ],
    [
      "শ",
      "ালী"
    ],
    [
      "গ",
      "ান্"
    ],
    [
      "শ্ৰ",
      "মিক"
    ],
    [
      "গু",
      "ণ"
    ],
    [
      "সীমান",
      "্ত"
    ],
    [
      "ঠ",
      "িক"
    ],
    [
      "কৈ",
      "ছিল"
    ],
    [
      "গুল",
      "ী"
    ],
    [
      "ব",
      "হি"
    ],
    [
      "৪",
      "০"
    ],
    [
      "কেই",
      "টা"
    ],
    [
      "প্ৰতি",
      "ক্ৰি"
    ],
    [
      "ষ",
      "ে"
    ],
    [
      "দু",
      "য়ো"
    ],
    [
      "দল",
      "টোৱে"
    ],
    [
      "ডিব্ৰু",
      "গড়"
    ],
    [
      "বৰ্ষ",
      "ৰ"
    ],
    [
      "২",
      "৬"
    ],
    [
      "১",
      ","
    ],
    [
      "নেতৃত্ব",
      "ত"
    ],
    [
      "প্ৰা",
      "থমিক"
    ],
    [
      "ডা",
      "ঙৰ"
    ],
    [
      "নি",
      "গ"
    ],
    [
      "হ",
      "ীন"
    ],
    [
      "পি",
      "নে"
    ],
    [
      "্র",
      "ী"
    ],
    [
      "সময়",
      "তে"
    ],
    [
      "(",
      "C"
    ],
    [
      "স্",
      "বী"
    ],
    [
      "ধৰ্",
      "ম"
    ],
    [
      "সহা",
      "য়"
    ],
    [
      "গাড়",
      "ী"
    ],
    [
      "আ",
      "টাই"
    ],
    [
      "গুৰুত",
      "ৰ"
    ],
    [
      "ূ",
      "পে"
    ],
    [
      "ব্ৰ",
      "হ"
    ],
    [
      "পৰা",
      "ই"
    ],
    [
      "দু",
      "ল"
    ],
    [
      "ব",
      "দ্ধ"
    ],
    [
      "ভিডি",
      "অ'"
    ],
    [
      "দক্ষি",
      "ণ"
    ],
    [
      "এ",
      "ৰি"
    ],
    [
      "হ",
      "ৰি"
    ],
    [
      "দ্বিত",
      "ীয়"
    ],
    [
      "পুৰ",
      "ত"
    ],
    [
      "মহ",
      "িল"
    ],
    [
      "ব",
      "ৰাই"
    ],
    [
      "য়া",
      "ক"
    ],
    [
      "নে",
      "ল"
    ],
    [
      "থান",
      "াত"
    ],
    [
      "জু",
      "ৰি"
    ],
    [
      "খে",
      "তি"
    ],
    [
      "বি",
      "চাৰ"
    ],
    [
      "প্ৰ",
      "শিক্ষ"
    ],
    [
      "বি",
      "জ্ঞান"
    ],
    [
      "ফ",
      "লা"
    ],
    [
      "সন্",
      "মান"
    ],
    [
      "পত",
      "্তি"
    ],
    [
      "ণ্",
      "টাৰ"
    ],
    [
      "কা",
      "ক"
    ],
    [
      "স",
      "ল"
    ],
    [
      "পাৰ",
      "া"
    ],
    [
      "এ",
      "টি"
    ],
    [
      "কে",
      "নে"
    ],
    [
      "c",
      "h"
    ],
    [
      "সে",
      "য়ে"
    ],
    [
      "স",
      "ৰু"
    ],
    [
      "।",
      "\""
    ],
    [
      "যুৱ",
      "তী"
    ],
    [
      "মা",
      "হৰ"
    ],
    [
      "্",
      "ন"
    ],
    [
      "নিৰা",
      "পত"
    ],
    [
      "পা",
      "ব"
    ],
    [
      "ন",
      "দ"
    ],
    [
      "উন্",
      "নত"
    ],
    [
      "মঙল",
      "বাৰে"
    ],
    [
      "কিল",
      "ো"
    ],
    [
      "ৰি",
      "ক্ত"
    ],
    [
      "পৰিয়",
      "াল"
    ],
    [
      "ভিত্ত",
      "িত"
    ],
    [
      "।",
      "সেই"
    ],
    [
      "সু",
      "স্থ"
    ],
    [
      "অতি",
      "ৰিক্ত"
    ],
    [
      "জু",
      "ন"
    ],
    [
      ")",
      "ৰ"
    ],
    [
      "জাত",
      "ীয়"
    ],
    [
      "২০",
      "০"
    ],
    [
      "ন",
      "ল"
    ],
    [
      "e",
      "t"
    ],
    [
      "বাস",
      "ী"
    ],
    [
      "নৰে",
      "ন্দ্ৰ"
    ],
    [
      "দ",
      "ৃ"
    ],
    [
      "উদ্যোগ",
      "ত"
    ],
    [
      "ক্ষ",
      "ণ"
    ],
    [
      "আন্ত",
      "ঃ"
    ],
    [
      "ত্যা",
      "গ"
    ],
    [
      "ল",
      "োৱাৰ"
    ],
    [
      "পাৰ",
      "িব"
    ],
    [
      "সমূ",
      "হত"
    ],
    [
      "পৰিস্থিতি",
      "ৰ"
    ],
    [
      "প্ৰতি",
      "ষ্ঠ"
    ],
    [
      "ৰ",
      "খা"
    ],
    [
      "উত্‍",
      "পাদ"
    ],
    [
      "u",
      "t"
    ],
    [
      "দায়",
      "িত্ব"
    ],
    [
      "দি",
      "না"
    ],
    [
      "প্ৰ",
      "য়োজন"
    ],
    [
      "নিৰ্বাচ",
      "নী"
    ],
    [
      "নি",
      "ত"
    ],
    [
      "ালয়",
      "ত"
    ],
    [
      "শী",
      "ল"
    ],
    [
      "বঁ",
      "টা"
    ],
    [
      "পত্",
      "নী"
    ],
    [
      "পৰীক্ষ",
      "াৰ"
    ],
    [
      "সাংবাদি",
      "ক"
    ],
    [
      "ত",
      "ৃত"
    ],
    [
      "অ",
      "ভ"
    ],
    [
      "প্ৰ",
      "ত্যা"
    ],
    [
      "আ",
      "ঘাত"
    ],
    [
      "চি",
      "ৰ"
    ],
    [
      "বিষ",
      "য়"
    ],
    [
      "উদযা",
      "পন"
    ],
    [
      "বি",
      "ক্ৰী"
    ],
    [
      "কঠ",
      "োৰ"
    ],
    [
      "ো",
      "ত্‍"
    ],
    [
      "সন্",
      "ধি"
    ],
    [
      "ম",
      "াৰ্"
    ],
    [
      "ৰাজহ",
      "ুৱা"
    ],
    [
      "পদ",
      "ক্ষেপ"
    ],
    [
      "জনাই",
      "ছে"
    ],
    [
      "ঞ্চ",
      "ল"
    ],
    [
      "সমা",
      "ধান"
    ],
    [
      "কেইবা",
      "টাও"
    ],
    [
      "অধীক্ষ",
      "ক"
    ],
    [
      "ীয়",
      "াই"
    ],
    [
      "পৰি",
      "কল্প"
    ],
    [
      "মাধ্য",
      "মৰ"
    ],
    [
      "প্ৰ",
      "ৱেশ"
    ],
    [
      "কি",
      "য়"
    ],
    [
      "d",
      "i"
    ],
    [
      "চ্",
      "ছা"
    ],
    [
      "হ",
      "ব"
    ],
    [
      "ী",
      "তি"
    ],
    [
      "পে",
      "ন"
    ],
    [
      "ফ",
      "ৰ"
    ],
    [
      "টে",
      "ল"
    ],
    [
      "বা",
      "ঢ়ি"
    ],
    [
      "ি",
      "ষ"
    ],
    [
      "ু",
      "ষ্ঠান"
    ],
    [
      "ম",
      "ল"
    ],
    [
      "উ",
      "লি"
    ],
    [
      "(",
      "P"
    ],
    [
      "সা",
      "ব্যস্ত"
    ],
    [
      "ন্যা",
      "য়"
    ],
    [
      "আই",
      "ন"
    ],
    [
      "ধাৰ",
      "া"
    ],
    [
      "বিধা",
      "য়ক"
    ],
    [
      "সংগ",
      "ঠ"
    ],
    [
      "সে",
      "য়া"
    ],
    [
      "বিত",
      "্ত"
    ],
    [
      "বান",
      "্"
    ],
    [
      "প্ৰতি",
      "নি"
    ],
    [
      "ধ",
      "ুৰ"
    ],
    [
      "ব্যা",
      "পক"
    ],
    [
      "দ",
      "খল"
    ],
    [
      "চিনা",
      "ক্ত"
    ],
    [
      "উ",
      "ই"
    ],
    [
      "দ",
      "িলে"
    ],
    [
      "ম",
      "ুৰ"
    ],
    [
      "ঘ",
      "ূ"
    ],
    [
      "যাত",
      "্ৰা"
    ],
    [
      "মহ",
      "ন্ত"
    ],
    [
      "ত",
      "ালি"
    ],
    [
      "দি",
      "নত"
    ],
    [
      "পা",
      "কিস্ত"
    ],
    [
      "অ",
      "বৈধ"
    ],
    [
      "যোগ",
      "ান"
    ],
    [
      "তি",
      "হা"
    ],
    [
      "কাৰ্",
      "বি"
    ],
    [
      "ৰঙ",
      "া"
    ],
    [
      "প্ৰ",
      "ক্ৰি"
    ],
    [
      "ৃ",
      "ণ"
    ],
    [
      "োৱ",
      "াল"
    ],
    [
      "ফ",
      "ুল"
    ],
    [
      "ব্যৱসা",
      "য়"
    ],
    [
      "খ",
      "াই"
    ],
    [
      "(",
      "S"
    ],
    [
      "ওচৰ",
      "ত"
    ],
    [
      "বি",
      "বাহ"
    ],
    [
      "ন",
      "্য"
    ],
    [
      "২",
      "৮"
    ],
    [
      "a",
      "y"
    ],
    [
      "গ",
      "্র"
    ],
    [
      "্ৰ",
      "ে"
    ],
    [
      "৬",
      "০"
    ],
    [
      "বড়",
      "ো"
    ],
    [
      "ক",
      "ন্যা"
    ],
    [
      "দিৱ",
      "স"
    ],
    [
      "মান",
      "ৰ"
    ],
    [
      "পৰা",
      "ম"
    ],
    [
      "ক'",
      "ভিড"
    ],
    [
      "আৰ",
      "ো"
    ],
    [
      "ব",
      "ৃত"
    ],
    [
      "আগ",
      "তে"
    ],
    [
      "ৰূ",
      "পা"
    ],
    [
      "u",
      "s"
    ],
    [
      "ভ",
      "ু"
    ],
    [
      "বাং",
      "লা"
    ],
    [
      "উচ",
      "িত"
    ],
    [
      "িল",
      "ি"
    ],
    [
      "ঙ",
      "ে"
    ],
    [
      "সং",
      "ঘ"
    ],
    [
      "জ্যে",
      "ষ্ঠ"
    ],
    [
      "ভ",
      "য়"
    ],
    [
      "শৰ্",
      "মাৰ"
    ],
    [
      "গো",
      "ষ্ঠ"
    ],
    [
      "হু",
      "ছে"
    ],
    [
      "খ",
      "ণ্ডৰ"
    ],
    [
      "প",
      "ল"
    ],
    [
      "দ",
      "ণ্ড"
    ],
    [
      "সৰবৰাহ",
      "কাৰী"
    ],
    [
      "উপল",
      "ক্ষে"
    ],
    [
      "২",
      "৭"
    ],
    [
      "স্",
      "ফ"
    ],
    [
      "বিদ্যালয়",
      "ৰ"
    ],
    [
      "A",
      "ssam"
    ],
    [
      "না",
      "ছিল"
    ],
    [
      "উপ",
      "-"
    ],
    [
      "ক্",
      "র"
    ],
    [
      "ভাগ",
      "্য"
    ],
    [
      "সল",
      "নি"
    ],
    [
      "a",
      "h"
    ],
    [
      "জ্ঞা",
      "পন"
    ],
    [
      "।",
      "তাৰ"
    ],
    [
      "্য",
      "াৰ"
    ],
    [
      "অৰু",
      "ণা"
    ],
    [
      "িক",
      "ো"
    ],
    [
      "পৰাম",
      "ৰ্শ"
    ],
    [
      "আ",
      "ধাৰ"
    ],
    [
      "ছ",
      "াই"
    ],
    [
      "সা",
      "হা"
    ],
    [
      "ত",
      "্ব"
    ],
    [
      "মুখ্যমন্ত্ৰ",
      "ীৰ"
    ],
    [
      "ব্ৰহ",
      "্ম"
    ],
    [
      "আ",
      "মেৰি"
    ],
    [
      "ড",
      "০"
    ],
    [
      "বে",
      "গ"
    ],
    [
      "দে",
      "উ"
    ],
    [
      "ছাত্ৰ-",
      "ছাত্ৰী"
    ],
    [
      "ো",
      "ধ"
    ],
    [
      "স্প",
      "ষ্ট"
    ],
    [
      "মা",
      "টি"
    ],
    [
      "পৰি",
      "ৱৰ্ত"
    ],
    [
      "বি",
      "কাশ"
    ],
    [
      "ব্য",
      "ক্ত"
    ],
    [
      "প্ৰ",
      "দেশৰ"
    ],
    [
      "সুৰ",
      "ক্ষা"
    ],
    [
      "যা",
      "তে"
    ],
    [
      "এ",
      "জা"
    ],
    [
      "a",
      ")"
    ],
    [
      "প্ৰ",
      "য়োজন"
    ],
    [
      "মৃত্য",
      "ুৰ"
    ],
    [
      "ম্",
      "বাই"
    ],
    [
      "দ",
      "ুৰ"
    ],
    [
      "ঙ্",
      "গ"
    ],
    [
      "গ",
      "ঠন"
    ],
    [
      "ন",
      "ীত"
    ],
    [
      "মানু",
      "হৰ"
    ],
    [
      "ব",
      "ন্দ"
    ],
    [
      "হাৰ",
      "ৰ"
    ],
    [
      "শান্ত",
      "ি"
    ],
    [
      "পুৰ",
      "ুষ"
    ],
    [
      "শ",
      "াল"
    ],
    [
      "ৰো",
      "ধ"
    ],
    [
      "ন্যা",
      "য়"
    ],
    [
      "কৃ",
      "তি"
    ],
    [
      "শক্তি",
      "শালী"
    ],
    [
      "কা",
      "জি"
    ],
    [
      "চল",
      "চ্চ"
    ],
    [
      "উ",
      "দ্ব"
    ],
    [
      "মু",
      "ক্তি"
    ],
    [
      "পৰ্য",
      "ন্ত"
    ],
    [
      "প",
      "োৱাৰ"
    ],
    [
      "ন",
      "।"
    ],
    [
      "ন্ত্ৰ",
      "ণ"
    ],
    [
      "সন্থ",
      "াৰ"
    ],
    [
      "পো",
      "হৰ"
    ],
    [
      "i",
      "g"
    ],
    [
      "কো",
      "ন"
    ],
    [
      "পৰিয়",
      "ালৰ"
    ],
    [
      "দে",
      "খি"
    ],
    [
      "ভিত",
      "ৰ"
    ],
    [
      "ৰ",
      "মেন"
    ],
    [
      "স",
      "চি"
    ],
    [
      "গ্ৰ",
      "স্ত"
    ],
    [
      "কাৰ্য",
      "্য"
    ],
    [
      "যু",
      "ঁ"
    ],
    [
      "প",
      "ণ"
    ],
    [
      "২০",
      "২১"
    ],
    [
      "জ",
      "োৱ"
    ],
    [
      "গো",
      "লা"
    ],
    [
      "o",
      "v"
    ],
    [
      "এই",
      "টো"
    ],
    [
      "সন্মুখ",
      "ীন"
    ],
    [
      "স",
      "প্তা"
    ],
    [
      "শী",
      "ঘ"
    ],
    [
      "মা",
      "হত"
    ],
    [
      "এনে",
      "দৰে"
    ],
    [
      "লাগিব",
      "।"
    ],
    [
      "গ",
      "ৌৰ"
    ],
    [
      "উ",
      "ভ"
    ],
    [
      "ল",
      "খি"
    ],
    [
      "ডি",
      "জে"
    ],
    [
      "চলচ্চ",
      "িত্ৰ"
    ],
    [
      "মু",
      "ক্ত"
    ],
    [
      "সন্ত",
      "্ৰাস"
    ],
    [
      "i",
      "m"
    ],
    [
      "কো",
      "কৰা"
    ],
    [
      "সা",
      "ক্ষ"
    ],
    [
      "দি",
      "ছে।"
    ],
    [
      "কো",
      "ভিড"
    ],
    [
      "মু",
      "ম্বাই"
    ],
    [
      "ন",
      "ু"
    ],
    [
      "যোগ",
      "া"
    ],
    [
      "পাই",
      "ছে"
    ],
    [
      "বা",
      "ছ"
    ],
    [
      "r",
      "es"
    ],
    [
      "মান",
      "ি"
    ],
    [
      "/আলোক",
      "."
    ],
    [
      "ই",
      "ফালে"
    ],
    [
      "জি",
      "ৰ"
    ],
    [
      "দি",
      "য়াৰ"
    ],
    [
      "প",
      "র"
    ],
    [
      "প্ৰ",
      "ত্য"
    ],
    [
      "ই",
      "ং"
    ],
    [
      "u",
      "l"
    ],
    [
      "অসম",
      "ীয়া"
    ],
    [
      "আগবঢ়",
      "াই"
    ],
    [
      "a",
      "b"
    ],
    [
      "দ্বিত",
      "ীয়"
    ],
    [
      "বা",
      "তৰি"
    ],
    [
      "বা",
      "লি"
    ],
    [
      "প",
      "লা"
    ],
    [
      "সে",
      "নাৰ"
    ],
    [
      "স্কৃ",
      "তিক"
    ],
    [
      "ছ",
      "ল"
    ],
    [
      "অ",
      "হাৰ"
    ],
    [
      "l",
      "o"
    ],
    [
      "ুৱ",
      "ৈ"
    ],
    [
      "শিক্ষাৰ্থ",
      "ী"
    ],
    [
      "বি",
      "লা"
    ],
    [
      "অৱ",
      "স্থা"
    ],
    [
      "হ",
      "ুল"
    ],
    [
      "আহ",
      "মে"
    ],
    [
      "ব",
      "স্ত"
    ],
    [
      "মাজ",
      "ুল"
    ],
    [
      "বা",
      "জে"
    ],
    [
      "আ",
      "য়"
    ],
    [
      "তা",
      "ক"
    ],
    [
      "গ",
      "ীত"
    ],
    [
      "ঞ্চ",
      "লিক"
    ],
    [
      "কাৰ",
      "ীৰ"
    ],
    [
      "প্ৰ",
      "মাণ"
    ],
    [
      "ৰা",
      "ল"
    ],
    [
      "২",
      "৯"
    ],
    [
      "প্ৰস্ত",
      "ুত"
    ],
    [
      "নেত",
      "্ৰী"
    ],
    [
      "য়",
      "ান"
    ],
    [
      "।ই",
      "তিমধ্যে"
    ],
    [
      "বিধান",
      "সভা"
    ],
    [
      "ব্যক্তি",
      "গত"
    ],
    [
      "ৰাজ",
      "ী"
    ],
    [
      "ত",
      "াই"
    ],
    [
      "প্ৰতি",
      "ষ্ঠান"
    ],
    [
      "i",
      "v"
    ],
    [
      "মে",
      "'"
    ],
    [
      "স্বা",
      "ম"
    ],
    [
      "সময়",
      "তে"
    ],
    [
      "বোৰ",
      "ৰ"
    ],
    [
      "থাকে",
      "।"
    ],
    [
      "জ",
      "িত্‍"
    ],
    [
      "(",
      "M"
    ],
    [
      "দিল্",
      "লী"
    ],
    [
      "বি",
      "ন্দ"
    ],
    [
      "কু",
      "মা"
    ],
    [
      "য",
      "াত্ৰী"
    ],
    [
      "পৰি",
      "মাণ"
    ],
    [
      "বিশ্",
      "বাস"
    ],
    [
      "ইছ",
      "লাম"
    ],
    [
      "পাই",
      "ছে।"
    ],
    [
      "জু",
      "ই"
    ],
    [
      "জা",
      "গ"
    ],
    [
      "হা",
      "স্"
    ],
    [
      "মে",
      "ল"
    ],
    [
      "সদ",
      "ৰি"
    ],
    [
      "ক",
      "ুৱা"
    ],
    [
      "্ম",
      "ীৰ"
    ],
    [
      "ব",
      "লে"
    ],
    [
      "জিলা",
      "খনৰ"
    ],
    [
      "ও",
      "ক"
    ],
    [
      "০০",
      "০"
    ],
    [
      "য়",
      "োগ"
    ],
    [
      "প্ৰ",
      "দৰ্শন"
    ],
    [
      "মাধ্য",
      "মিক"
    ],
    [
      "অ",
      "ত্যা"
    ],
    [
      "বাহি",
      "নীৰ"
    ],
    [
      "ভ্ৰম",
      "ণ"
    ],
    [
      "চা",
      "কৰি"
    ],
    [
      "ঘটনাস্থ",
      "লীত"
    ],
    [
      "ম্",
      "প"
    ],
    [
      "ৰাছি",
      "য়াৰ"
    ],
    [
      "কামৰ",
      "ূপ"
    ],
    [
      "কিছু",
      "মান"
    ],
    [
      "বো",
      "কা"
    ],
    [
      "স",
      "াত"
    ],
    [
      "ৰা",
      "ত"
    ],
    [
      "আৰক্ষী",
      "ক"
    ],
    [
      "ধু",
      "বুৰ"
    ],
    [
      "ৰু",
      "জু"
    ],
    [
      "ৰঙ",
      "ি"
    ],
    [
      "আদ",
      "াল"
    ],
    [
      "সম্",
      "প্ৰ"
    ],
    [
      "য",
      "'ত"
    ],
    [
      "ীয়া",
      "কৈ"
    ],
    [
      "আঁচ",
      "নিৰ"
    ],
    [
      "বৈঠ",
      "কত"
    ],
    [
      "বিদ্যুত",
      "্‍"
    ],
    [
      "সম্প",
      "ৰ্"
    ],
    [
      "পৰি",
      "ব"
    ],
    [
      "দি",
      "ছিল"
    ],
    [
      "পূৰ্",
      "ব"
    ],
    [
      "চিকিত্‍স",
      "ালয়"
    ],
    [
      "প",
      "ালে"
    ],
    [
      "।",
      "যাৰ"
    ],
    [
      "িক",
      "ভাৱে"
    ],
    [
      "য",
      "্য"
    ],
    [
      "মি",
      "ন"
    ],
    [
      "প",
      "ালি"
    ],
    [
      "ট্ৰ",
      "ে"
    ],
    [
      "অঞ্চল",
      "টোৰ"
    ],
    [
      "ৰাজ্য",
      "খনৰ"
    ],
    [
      "আন",
      "কি"
    ],
    [
      "কলি",
      "য়া"
    ],
    [
      "ী",
      "প"
    ],
    [
      "মি",
      "ডি"
    ],
    [
      "সু",
      "যোগ"
    ],
    [
      "দ",
      "শ"
    ],
    [
      "খেল",
      "ুৱৈ"
    ],
    [
      "t",
      "h"
    ],
    [
      "লগ",
      "ীয়া"
    ],
    [
      "কিশোৰ",
      "/মনোজ"
    ],
    [
      "ৱাৰ্ড",
      "ত"
    ],
    [
      "লখি",
      "ম"
    ],
    [
      "গ",
      "ৰি"
    ],
    [
      "বছৰ",
      "ীয়া"
    ],
    [
      "ম",
      "ক"
    ],
    [
      "ালো",
      "চনা"
    ],
    [
      "ব",
      "ক্ত"
    ],
    [
      "প্ৰ",
      "কল্প"
    ],
    [
      "অ",
      "ল"
    ],
    [
      "যা",
      "য়"
    ],
    [
      "সাং",
      "স্কৃতিক"
    ],
    [
      "ব",
      "াৰ্"
    ],
    [
      "ক",
      "ালি"
    ],
    [
      "প্ৰশিক্ষ",
      "ণ"
    ],
    [
      "গৃ",
      "হত"
    ],
    [
      "কা",
      "ণ্ডৰ"
    ],
    [
      "বহু",
      "তো"
    ],
    [
      "হ",
      "স্ত"
    ],
    [
      "কাশ",
      "্মীৰ"
    ],
    [
      "১০",
      "০"
    ],
    [
      "আ",
      "বেদন"
    ],
    [
      "মূ",
      "ৰ"
    ],
    [
      "উন্ন",
      "য়ন"
    ],
    [
      "চু",
      "ৰি"
    ],
    [
      "ct",
      "ion"
    ],
    [
      "পু",
      "লি"
    ],
    [
      "বি",
      "না"
    ],
    [
      "প্ৰ",
      "থ"
    ],
    [
      "্",
      "বা"
    ],
    [
      "।",
      "আৰু"
    ],
    [
      "পে",
      "লাই"
    ],
    [
      "ভা",
      "ঙি"
    ],
    [
      "সকল",
      "োৱে"
    ],
    [
      "সম্",
      "প্ৰতি"
    ],
    [
      "ক",
      "ক"
    ],
    [
      "ক",
      "বি"
    ],
    [
      "a",
      "k"
    ],
    [
      "মহ",
      "কুমা"
    ],
    [
      "ম",
      "ৌ"
    ],
    [
      "সে",
      "ৱ"
    ],
    [
      "নিৰ্",
      "মাণৰ"
    ],
    [
      "সহা",
      "য়"
    ],
    [
      "প",
      "ঞ্জা"
    ],
    [
      "অৱ",
      "গত"
    ],
    [
      "হা",
      "ঁ"
    ],
    [
      "সং",
      "ৰ"
    ],
    [
      "ল'",
      "ব"
    ],
    [
      "ব",
      "ং"
    ],
    [
      "কলিয়া",
      "বৰ"
    ],
    [
      "শ্ৰে",
      "ণ"
    ],
    [
      "প্ৰি",
      "য়"
    ],
    [
      "ে",
      "ৰে"
    ],
    [
      "হ",
      "ল"
    ],
    [
      "আ",
      "য়োজন"
    ],
    [
      "প্ৰশাস",
      "নে"
    ],
    [
      "কয়",
      ","
    ],
    [
      "ু",
      "ক"
    ],
    [
      "ব",
      "য়"
    ],
    [
      "আ",
      "ঞ্চলিক"
    ],
    [
      "o",
      "d"
    ],
    [
      "ম",
      "িত্ৰ"
    ],
    [
      "হ",
      "োৱাত"
    ],
    [
      "প্ৰস্ত",
      "া"
    ],
    [
      "সী",
      "মা"
    ],
    [
      "আ",
      "ং"
    ],
    [
      "লি",
      "টাৰ"
    ],
    [
      "ত",
      "ৃণ"
    ],
    [
      "নি",
      "ম"
    ],
    [
      "বিৰো",
      "ধ"
    ],
    [
      "চ",
      "ত"
    ],
    [
      "টে",
      "ই"
    ],
    [
      "মো",
      "ড"
    ],
    [
      "কোকৰা",
      "ঝাৰ"
    ],
    [
      "য",
      "িকো"
    ],
    [
      "না",
      "ক"
    ],
    [
      "ছ",
      "ত"
    ],
    [
      "ম",
      "ৰ্"
    ],
    [
      "প্",
      "লে"
    ],
    [
      "কা",
      "র"
    ],
    [
      "যিকো",
      "নো"
    ],
    [
      "স",
      "ক্ৰি"
    ],
    [
      "াল",
      "য়ে"
    ],
    [
      "চিকিত্‍স",
      "াৰ"
    ],
    [
      "শ্ৰ",
      "ুতি"
    ],
    [
      "এ",
      "ক্স"
    ],
    [
      "বি",
      "স্ফ"
    ],
    [
      "ই",
      "য়াক"
    ],
    [
      "ণ্ড",
      "ে"
    ],
    [
      "খ",
      "ান"
    ],
    [
      "নিৰ্",
      "ম"
    ],
    [
      "সন্মুখ",
      "ত"
    ],
    [
      "ন",
      "গ"
    ],
    [
      "বিস্ফ",
      "োৰ"
    ],
    [
      "আহি",
      "ছিল"
    ],
    [
      "সন্ত",
      "ান"
    ],
    [
      "t",
      "er"
    ],
    [
      "ব",
      "ট"
    ],
    [
      "কর",
      "ে"
    ],
    [
      "প্ৰতি",
      "টো"
    ],
    [
      "ব্",
      "ধ"
    ],
    [
      "ষ",
      "ি"
    ],
    [
      "অ",
      "স্ত্ৰ"
    ],
    [
      "গৈ",
      "ছিল"
    ],
    [
      "কাৰ",
      "া"
    ],
    [
      "পা",
      "তি"
    ],
    [
      "দূ",
      "ৰ"
    ],
    [
      "ফ",
      "্"
    ],
    [
      "সমস্য",
      "াৰ"
    ],
    [
      "নি",
      "জে"
    ],
    [
      "টি",
      "ং"
    ],
    [
      "হাস্",
      "পত"
    ],
    [
      "কৰ",
      "ক"
    ],
    [
      "কাৰ",
      "ে"
    ],
    [
      "পৰিল",
      "ক্ষিত"
    ],
    [
      "শেহত",
      "ীয়াকৈ"
    ],
    [
      "উ",
      "ঠ"
    ],
    [
      "কা",
      "ঠ"
    ],
    [
      "উ",
      "ৰি"
    ],
    [
      "নম্ব",
      "ৰৰ"
    ],
    [
      "সন্",
      "মিল"
    ],
    [
      "স্বা",
      "মী"
    ],
    [
      "না",
      "ছিল।"
    ],
    [
      "তে",
      "ল"
    ],
    [
      "(",
      "B"
    ],
    [
      "ন",
      "োৱ"
    ],
    [
      "।",
      "আজি"
    ],
    [
      "ধ",
      "ৰ্ষ"
    ],
    [
      "e",
      "l"
    ],
    [
      "মুখ্যমন্ত্ৰ",
      "ীয়ে"
    ],
    [
      "সম্প",
      "ন্ন"
    ],
    [
      "ভ",
      "াত"
    ],
    [
      "ভাষ",
      "ণ"
    ],
    [
      "ট",
      "িত"
    ],
    [
      "ব",
      "ঙ"
    ],
    [
      "নে",
      "কি"
    ],
    [
      "মন্ত",
      "্রী"
    ],
    [
      "ফো",
      "ন"
    ],
    [
      "ন্দ",
      "োল"
    ],
    [
      "আ",
      "হে"
    ],
    [
      "সং",
      "স্থা"
    ],
    [
      "সহযোগ",
      "ত"
    ],
    [
      "৮",
      "০"
    ],
    [
      "অভি",
      "নেতা"
    ],
    [
      "জন",
      "গোষ্ঠ"
    ],
    [
      "ক",
      "ঢ়ি"
    ],
    [
      "কি",
      "য়"
    ],
    [
      "ভাই",
      "ৰেল"
    ],
    [
      "ভৱ",
      "িষ"
    ],
    [
      "প",
      "দৰ"
    ],
    [
      "ঘৰ",
      "লৈ"
    ],
    [
      "উপ",
      "স্থিতি"
    ],
    [
      "ic",
      "e"
    ],
    [
      "নাৰ",
      "া"
    ],
    [
      "চৌ",
      "হ"
    ],
    [
      "২",
      ","
    ],
    [
      "।",
      "এ"
    ],
    [
      "ড",
      "৹"
    ],
    [
      "ভৱিষ",
      "্য"
    ],
    [
      "বিশ্ব",
      "ৰ"
    ],
    [
      "আগবঢ়",
      "া"
    ],
    [
      "তেওঁ",
      "লোকক"
    ],
    [
      "প",
      "তা"
    ],
    [
      "ল",
      "াল"
    ],
    [
      "আ",
      "ন্দোল"
    ],
    [
      "i",
      "st"
    ],
    [
      "বৃদ্ধি",
      "ৰ"
    ],
    [
      "প্ৰতিনি",
      "ধি"
    ],
    [
      "মু",
      "ল"
    ],
    [
      "উ",
      "ল"
    ],
    [
      "ক্",
      "লা"
    ],
    [
      "ৱ",
      "ি"
    ],
    [
      "বান",
      "ৰ"
    ],
    [
      "ও",
      "ৱা"
    ],
    [
      "বি",
      "দ"
    ],
    [
      "দী",
      "প"
    ],
    [
      "নতুন",
      "কৈ"
    ],
    [
      "e",
      "m"
    ],
    [
      "ম",
      "ঞ্চ"
    ],
    [
      "বিশেষ",
      "কৈ"
    ],
    [
      "প্ৰে",
      "ছ"
    ],
    [
      "গ্ৰ",
      "ী"
    ],
    [
      "ন্",
      "দ্"
    ],
    [
      "পৰিকল্প",
      "না"
    ],
    [
      "ৰাখি",
      "ছে"
    ],
    [
      "মান",
      "ৱ"
    ],
    [
      "ৰোগ",
      "ীৰ"
    ],
    [
      "চল",
      "িত"
    ],
    [
      "গো",
      "পন"
    ],
    [
      "হ",
      "ʼ"
    ],
    [
      "চল",
      "োৱা"
    ],
    [
      "ব",
      "্ব"
    ],
    [
      "কয়",
      ","
    ],
    [
      "যোগা",
      "যোগ"
    ],
    [
      "অধ",
      "্যা"
    ],
    [
      "ব",
      "না"
    ],
    [
      "ফলা",
      "ফল"
    ],
    [
      "স্",
      "বৰ"
    ],
    [
      "e",
      "st"
    ],
    [
      "শো",
      "ধ"
    ],
    [
      "কল",
      "্"
    ],
    [
      "শতা",
      "ধিক"
    ],
    [
      "ব",
      "য়"
    ],
    [
      "প্ৰথ",
      "মে"
    ],
    [
      "মে",
      "ঘ"
    ],
    [
      "ন",
      "াৰ্"
    ],
    [
      "মা",
      "জে"
    ],
    [
      "চাল",
      "ক"
    ],
    [
      "ৰোগ",
      "ী"
    ],
    [
      "er",
      "s"
    ],
    [
      "পেট্ৰ",
      "'ল"
    ],
    [
      "বা",
      "হৰ"
    ],
    [
      "ম",
      "তি"
    ],
    [
      "ত",
      "াল"
    ],
    [
      "খন",
      "ো"
    ],
    [
      "চ",
      "োৰ"
    ],
    [
      "বু",
      "কি"
    ],
    [
      "আটাই",
      "তকৈ"
    ],
    [
      "অৰ্থ",
      "াত্‍"
    ],
    [
      "ডা",
      "ঃ"
    ],
    [
      "কৰা",
      "টো"
    ],
    [
      "দা",
      "সে"
    ],
    [
      "পো",
      "ন"
    ],
    [
      "বা",
      "ঢ়"
    ],
    [
      "গ",
      "ছৰ"
    ],
    [
      "।",
      "অৱশ্যে"
    ],
    [
      "বি",
      "ধ"
    ],
    [
      "য়",
      "ণ"
    ],
    [
      "ব",
      "জ"
    ],
    [
      "অভিযান",
      "ত"
    ],
    [
      "হ'ব",
      "লৈ"
    ],
    [
      "প্ৰধান",
      "মন্ত্ৰ"
    ],
    [
      "সা",
      "ৱ"
    ],
    [
      "চিন্ত",
      "া"
    ],
    [
      "20",
      "22"
    ],
    [
      "বু",
      "ল"
    ],
    [
      "জীৱ",
      "নৰ"
    ],
    [
      "দিল্",
      "লীৰ"
    ],
    [
      "h",
      "o"
    ],
    [
      "পৰি",
      "মাণৰ"
    ],
    [
      "মানু",
      "হে"
    ],
    [
      "লি",
      "খি"
    ],
    [
      "য়ে",
      "ল"
    ],
    [
      "পোহৰ",
      "লৈ"
    ],
    [
      "মহা",
      "বিদ্যালয়"
    ],
    [
      "স",
      "ঁ"
    ],
    [
      "দ",
      "ৌ"
    ],
    [
      "ন",
      "গাঁৱৰ"
    ],
    [
      "উপা",
      "য়"
    ],
    [
      "দ",
      "্ৰা"
    ],
    [
      "অপৰা",
      "ধ"
    ],
    [
      "চৌ",
      "ধুৰ"
    ],
    [
      "ম",
      "ৰা"
    ],
    [
      "মান",
      "সিক"
    ],
    [
      "হো",
      "জাই"
    ],
    [
      "ম",
      "'"
    ],
    [
      "সো",
      "ণৰ"
    ],
    [
      "মা",
      "ছ"
    ],
    [
      "।",
      "অ"
    ],
    [
      "গুৱাহাট",
      "ী,"
    ],
    [
      "বজাৰ",
      "ত"
    ],
    [
      "য",
      "াত্ৰ"
    ],
    [
      "হʼ",
      "ব"
    ],
    [
      "ুৰ",
      "ী"
    ],
    [
      "কৰে",
      ","
    ],
    [
      "৩",
      "৫"
    ],
    [
      "ছে",
      "দ"
    ],
    [
      "চাৰ",
      "্"
    ],
    [
      "গুৰ",
      "ু"
    ],
    [
      "ত",
      "ত্‍"
    ],
    [
      "আ",
      "প"
    ],
    [
      "আৱ",
      "দ্ধ"
    ],
    [
      "ৰাখ",
      "িব"
    ],
    [
      "ভাৰ",
      "প্ৰাপ্ত"
    ],
    [
      "মহিল",
      "াৰ"
    ],
    [
      "সে",
      "য়ে"
    ],
    [
      "ত",
      "ন"
    ],
    [
      "ড",
      "°"
    ],
    [
      "নিৰ্দেশ",
      "না"
    ],
    [
      "নিৰ্বাচ",
      "িত"
    ],
    [
      "ন্",
      "স"
    ],
    [
      "বি",
      "নে"
    ],
    [
      "য়",
      "াৰে"
    ],
    [
      "এ",
      "কো"
    ],
    [
      "য",
      "ৌ"
    ],
    [
      "অতি",
      "ক্ৰম"
    ],
    [
      "ক্ষ",
      "ী"
    ],
    [
      "প্ৰ",
      "সা"
    ],
    [
      "৭",
      "০"
    ],
    [
      "সাহা",
      "য্য"
    ],
    [
      "পৰিচাল",
      "না"
    ],
    [
      "আ",
      "জ"
    ],
    [
      "গ",
      "ৱে"
    ],
    [
      "অনু",
      "ৰা"
    ],
    [
      "ো",
      "ঁ"
    ],
    [
      "ৰা",
      "হুল"
    ],
    [
      "জ",
      "ৰা"
    ],
    [
      "অঞ্চল",
      "টোত"
    ],
    [
      "অন্ত",
      "ত"
    ],
    [
      "তিনি",
      "টা"
    ],
    [
      "।ই",
      "পিনে"
    ],
    [
      "মাধ্য",
      "মত"
    ],
    [
      "প",
      "নৰ"
    ],
    [
      "ক্ষ",
      "ো"
    ],
    [
      "দিন",
      "টোত"
    ],
    [
      "c",
      "e"
    ],
    [
      "প্ৰতি",
      "শ্ৰুতি"
    ],
    [
      "স্ত",
      "ি"
    ],
    [
      "সমূ",
      "হে"
    ],
    [
      "অৱশ",
      "েষ"
    ],
    [
      "ও",
      "ৰ"
    ],
    [
      "অভি",
      "নেত্ৰী"
    ],
    [
      "মানু",
      "হ"
    ],
    [
      "ৱাৰ্",
      "ডৰ"
    ],
    [
      "লাই",
      "ন"
    ],
    [
      "ট্ৰা",
      "ক"
    ],
    [
      "চৰকাৰ",
      "ক"
    ],
    [
      "নদ",
      "ীৰ"
    ],
    [
      "গ",
      "ান"
    ],
    [
      "স",
      "ৌ"
    ],
    [
      "ম",
      "দ"
    ],
    [
      "সামগ্ৰ",
      "ীৰ"
    ],
    [
      "পৰ",
      "ম্"
    ],
    [
      "শং",
      "কৰ"
    ],
    [
      "নাগ",
      "ৰিক"
    ],
    [
      "পৰি",
      "দৰ্শন"
    ],
    [
      "বি",
      "য়"
    ],
    [
      "জ",
      "ত"
    ],
    [
      "ৰা",
      "তি"
    ],
    [
      "৭",
      "৫"
    ],
    [
      "মাৰ",
      "ী"
    ],
    [
      "লে",
      "ন"
    ],
    [
      "এফ",
      "ৰ"
    ],
    [
[...]
