{
  "vocab": {
    ",": 0,
    "ं": 1,
    "ः": 2,
    "अ": 3,
    "आ": 4,
    "इ": 5,
    "ई": 6,
    "उ": 7,
    "ऊ": 8,
    "ए": 9,
    "ऐ": 10,
    "ओ": 11,
    "औ": 12,
    "क": 13,
    "ख": 14,
    "ग": 15,
    "घ": 16,
    "च": 17,
    "छ": 18,
    "ज": 19,
    "झ": 20,
    "ञ": 21,
    "ट": 22,
    "ठ": 23,
    "ड": 24,
    "ढ": 25,
    "ण": 26,
    "त": 27,
    "थ": 28,
    "द": 29,
    "ध": 30,
    "न": 31,
    "प": 32,
    "फ": 33,
    "ब": 34,
    "भ": 35,
    "म": 36,
    "य": 37,
    "र": 38,
    "ल": 39,
    "व": 40,
    "श": 41,
    "ष": 42,
    "स": 43,
    "ह": 44,
    "़": 45,
    "ा": 46,
    "ि": 47,
    "ी": 48,
    "ु": 49,
    "ू": 50,
    "ृ": 51,
    "े": 52,
    "ै": 53,
    "ॉ": 54,
    "ो": 55,
    "ौ": 56,
    "्": 57,
    "।": 58,
    "है": 59,
    "का": 60,
    "है।": 61,
    "ं।": 62,
    "ें": 63,
    "्र": 64,
    "बह": 65,
    "ुत": 66,
    "बहुत": 67,
    "ान": 68,
    "में": 69,
    "और": 70,
    "ंद": 71,
    "मु": 72,
    "वि": 73,
    "प्र": 74,
    "्य": 75,
    "एक": 76,
    "ोग": 77,
    "ार": 78,
    "िन": 79,
    "हैं।": 80,
    "ुर": 81,
    "ेक": 82,
    "हर": 83,
    "अच": 84,
    "अच्": 85,
    "अच्छ": 86,
    "ही": 87,
    "आज": 88,
    "होग": 89,
    "होगा": 90,
    "शहर": 91,
    "अच्छे": 92,
    "मुझ": 93,
    "मुझे": 94,
    "पस": 95,
    "पसंद": 96,
    "लेक": 97,
    "लेकिन": 98,
    "नही": 99,
    "नहीं।": 100,
    "होगा।": 101,
    "ाल": 102,
    "पर": 103,
    "ता": 104,
    "ाना": 105,
    "ना": 106,
    "्व": 107,
    "िक": 108,
    "षा": 109,
    "द्": 110,
    "द्ध": 111,
    "ोल": 112,
    "सु": 113,
    "पुर": 114,
    "ड़": 115,
    "ों": 116,
    "लि": 117,
    "विश": 118,
    "्न": 119,
    "रा": 120,
    "प्रस": 121,
    "प्रसि": 122,
    "प्रसिद्ध": 123,
    "भार": 124,
    "भारत": 125,
    "दे": 126,
    "बड़": 127,
    "भा": 128,
    "गल": 129,
    "ली": 130,
    "पुराना": 131,
    "हान": 132,
    "ुरु": 133,
    "विश्व": 134,
    "न्न": 135,
    "ां": 136,
    "स्": 137,
    "कोल": 138,
    "कोलका": 139,
    "कोलकाता": 140,
    "सुंद": 141,
    "सुंदर": 142,
    "दि": 143,
    "दिल": 144,
    "दिल्": 145,
    "दिल्ली": 146,
    "महान": 147,
    "से": 148,
    "की": 149,
    "बें": 150,
    "बेंगल": 151,
    "बेंगलुरु": 152,
    "चे": 153,
    "चेन्न": 154,
    "चेन्नई": 155,
    "मुं": 156,
    "मुंब": 157,
    "मुंबई": 158,
    "बड़ा": 159,
    "ति": 160,
    "र्": 161,
    "भाषा": 162,
    "पन": 163,
    "देश": 164,
    "परं": 165,
    "परंपर": 166,
    "परंपरा": 167,
    "चा": 168,
    "वार": 169,
    "्षा": 170,
    "शिक": 171,
    "मा": 172,
    "ालय": 173,
    "त्य": 174,
    "अपन": 175,
    "के": 176,
    "लिए": 177,
    "ओं": 178,
    "विद": 179,
    "विद्य": 180,
    "विद्यालय": 181,
    "दा": 182,
    "िय": 183,
    "शिक्षा": 184,
    "स्थ": 185,
    "राज": 186,
    "ाली": 187,
    "ची": 188,
    "सब": 189,
    "स्व": 190,
    "दी": 191,
    "सम": 192,
    "र्म": 193,
    "ला": 194,
    "ती": 195,
    "सं": 196,
    "्ष": 197,
    "्री": 198,
    "जो": 199,
    "अपनी": 200,
    "जा": 201,
    "यह": 202,
    "भाषाओं": 203,
    "सबसे": 204,
    "भारती": 205,
    "भारतीय": 206,
    "प्रण": 207,
    "योग": 208,
    "ढ़": 209,
    "स्वा": 210,
    "व्य": 211,
    "कृ": 212,
    "पा": 213,
    "नाग": 214,
    "जन": 215,
    "खाना": 216,
    "बा": 217,
    "्ट": 218,
    "विध": 219,
    "हैं": 220,
    "धर्म": 221,
    "री": 222,
    "प्रा": 223,
    "प्राची": 224,
    "प्राचीन": 225,
    "शां": 226,
    "शांति": 227,
    "ोली": 228,
    "लिख": 229,
    "हज": 230,
    "हजार": 231,
    "विश्वविद्यालय": 232,
    "हा": 233,
    "जाना": 234,
    "संग": 235,
    "पि": 236,
    "स्कृ": 237,
    "मस": 238,
    "मसाल": 239,
    "राज्य": 240,
    "ानस": 241,
    "क्ष": 242,
    "सां": 243,
    "ने": 244,
    "यक": 245,
    "वे": 246,
    "वर्": 247,
    "्या": 248,
    "सा": 249,
    "ंत": 250,
    "नि": 251,
    "सू": 252,
    "पु": 253,
    "ोट": 254,
    "ेज": 255,
    "दक्ष": 256,
    "दक्षि": 257,
    "दक्षिण": 258,
    "एश": 259,
    "एशिय": 260,
    "एशिया": 261,
    "स्थि": 262,
    "स्थित": 263,
    "विशाल": 264,
    "समृ": 265,
    "समृद्ध": 266,
    "सांस्कृ": 267,
    "सांस्कृत": 268,
    "सांस्कृतिक": 269,
    "विरा": 270,
    "विरास": 271,
    "विरासत": 272,
    "जाता": 273,
    "यहां": 274,
    "विभ": 275,
    "विभिन": 276,
    "विभिन्न": 277,
    "धर्मों": 278,
    "धर्मों,": 279,
    "परंपराओं": 280,
    "संगम": 281,
    "हिन": 282,
    "हिन्": 283,
    "हिन्दी": 284,
    "राजभाषा": 285,
    "अध": 286,
    "अधिक": 287,
    "बोली": 288,
    "जान": 289,
    "जाने": 290,
    "वाली": 291,
    "देव": 292,
    "देवनाग": 293,
    "देवनागरी": 294,
    "लिपि": 295,
    "लिखी": 296,
    "जाती": 297,
    "प्रणाली": 298,
    "बड़ी": 299,
    "प्रणाल": 300,
    "प्रणालिय": 301,
    "प्रणालियों": 302,
    "हजारों": 303,
    "अपने": 304,
    "विविध": 305,
    "व्यं": 306,
    "व्यंजन": 307,
    "व्यंजनों": 308,
    "मसालों": 309,
    "प्रत्य": 310,
    "प्रत्येक": 311,
    "अन": 312,
    "अनू": 313,
    "अनूठ": 314,
    "अनूठी": 315,
    "पाक": 316,
    "ध्य": 317,
    "ध्यान": 318,
    "परंपराए": 319,
    "परंपराएं": 320,
    "स्वास्थ": 321,
    "स्वास्थ्य": 322,
    "मानस": 323,
    "मानसिक": 324,
    "लाभ": 325,
    "लाभदा": 326,
    "लाभदायक": 327,
    "अब": 328,
    "विश्वभ": 329,
    "विश्वभर": 330,
    "प्रच": 331,
    "प्रचल": 332,
    "प्रचलन": 333,
    "बढ़": 334,
    "रहा": 335,
    "कॉ": 336,
    "पढ़": 337,
    "ाई": 338,
    "नी": 339,
    "सो": 340,
    "मो": 341,
    "ाप": 342,
    "धी": 343,
    "भो": 344,
    "हार": 345,
    "वेय": 346,
    "वेयर": 347,
    "दो": 348,
    "बाद": 349,
    "क्षा": 350,
    "राष": 351,
    "राष्ट": 352,
    "राष्ट्र": 353,
    "तक": 354,
    "नेट": 355,
    "मंत": 356,
    "मंत्री": 357,
    "पुत": 358,
    "परि": 359,
    "शिक्ष": 360,
    "ाम": 361,
    "हि": 362,
    "ानी": 363,
    "टर": 364,
    "त्र": 365,
    "सूर": 366,
    "न्या": 367,
    "न्याय": 368,
    "सत्य": 369,
    "सद": 370,
    "क्र": 371,
    "शु": 372,
    "कर": 373,
    "माण": 374,
    "ंगल": 375,
    "छोट": 376,
    "छोटा": 377,
    "सुबह": 378,
    "तेज": 379,
    "विका": 380,
    "विकास": 381,
    "पढ़ना": 382,
    "प्रकृ": 383,
    "प्रकृति": 384,
    "कक्षा": 385,
    "रां": 386,
    "रांची": 387,
    "कॉफ": 388,
    "कॉफी": 389,
    "मि": 390,
    "मिठ": 391,
    "मिठाई": 392,
    "यु": 393,
    "युद्ध": 394,
    "लो": 395,
    "लोक": 396,
    "लोकप्र": 397,
    "लोकप्रिय": 398,
    "सुख": 399,
    "उपन": 400,
    "उपन्या": 401,
    "उपन्यास": 402,
    "रोट": 403,
    "रोटी": 404,
    "लाख": 405,
    "सात": 406,
    "नौ": 407,
    "व्याप": 408,
    "व्यापार": 409,
    "अच्छा": 410,
    "स्वाधी": 411,
    "स्वाधीन": 412,
    "स्वाधीनता": 413,
    "नीचा": 414,
    "हों": 415,
    "होंग": 416,
    "होंगे": 417,
    "नेता": 418,
    "कॉल": 419,
    "कॉलेज": 420,
    "माता": 421,
    "खरी": 422,
    "खरीद": 423,
    "सोम": 424,
    "सोमवार": 425,
    "डे": 426,
    "डेट": 427,
    "डेटा": 428,
    "छह": 429,
    "लोग": 430,
    "रात": 431,
    "सोना": 432,
    "नई": 433,
    "मोर": 434,
    "भोजन": 435,
    "हार्": 436,
    "हार्ड": 437,
    "हार्डवेयर": 438,
    "समान": 439,
    "समानता": 440,
    "देख": 441,
    "देखना": 442,
    "तकनी": 443,
    "तकनीक": 444,
    "गुरु": 445,
    "गुरुवार": 446,
    "समु": 447,
    "समुद": 448,
    "समुद्र": 449,
    "प्रग": 450,
    "प्रगति": 451,
    "पढ़ाई": 452,
    "था": 453,
    "गं": 454,
    "गंध": 455,
    "बाघ": 456,
    "नेटवर्": 457,
    "नेटवर्क": 458,
    "पुत्री": 459,
    "मोबा": 460,
    "मोबाइ": 461,
    "मोबाइल": 462,
    "पर्व": 463,
    "पर्वत": 464,
    "होली": 465,
    "बु": 466,
    "बुध": 467,
    "बुधवार": 468,
    "समय": 469,
    "कल": 470,
    "पानी": 471,
    "उन्न": 472,
    "उन्नति": 473,
    "पट": 474,
    "पटना": 475,
    "दीपा": 476,
    "दीपाव": 477,
    "दीपावली": 478,
    "वर्ष": 479,
    "दिन": 480,
    "अह": 481,
    "अहम": 482,
    "अहमदा": 483,
    "अहमदाबाद": 484,
    "आध": 485,
    "आधु": 486,
    "आधुन": 487,
    "आधुनिक": 488,
    "घृ": 489,
    "घृण": 490,
    "घृणा": 491,
    "मही": 492,
    "महीना": 493,
    "हिर": 494,
    "हिरण": 495,
    "लिखना": 496,
    "दोप": 497,
    "दोपहर": 498,
    "परिवार": 499,
    "फल": 500,
    "परस": 501,
    "परसों": 502,
    "सुन": 503,
    "सुनना": 504,
    "हाथ": 505,
    "हाथी": 506,
    "पचा": 507,
    "पचास": 508,
    "चार": 509,
    "इंद": 510,
    "इंदौ": 511,
    "इंदौर": 512,
    "भाग": 513,
    "भाग्य": 514,
    "चाव": 515,
    "चावल": 516,
    "तीस": 517,
    "राष्ट्रप": 518,
    "राष्ट्रपति": 519,
    "दादी": 520,
    "वन": 521,
    "उत": 522,
    "उत्": 523,
    "उत्पा": 524,
    "उत्पाद": 525,
    "उत्पादन": 526,
    "नदी": 527,
    "पे": 528,
    "पेड़": 529,
    "आठ": 530,
    "शिक्षक": 531,
    "स्वाद": 532,
    "थे": 533,
    "स्थाप": 534,
    "स्थापना": 535,
    "भोप": 536,
    "भोपाल": 537,
    "हैद": 538,
    "हैदरा": 539,
    "हैदराबाद": 540,
    "चु": 541,
    "चुना": 542,
    "चुनाव": 543,
    "प्रोग": 544,
    "प्रोग्र": 545,
    "प्रोग्राम": 546,
    "आका": 547,
    "आकाश": 548,
    "बुर": 549,
    "बुरा": 550,
    "कहान": 551,
    "कहानी": 552,
    "त्यो": 553,
    "त्योहार": 554,
    "नय": 555,
    "नया": 556,
    "झी": 557,
    "झील": 558,
    "ईद": 559,
    "वेब": 560,
    "वेबसा": 561,
    "वेबसाइ": 562,
    "वेबसाइट": 563,
    "दाल": 564,
    "छा": 565,
    "छात्र": 566,
    "सॉ": 567,
    "सॉफ": 568,
    "सॉफ्ट": 569,
    "सॉफ्टवेयर": 570,
    "व्यक": 571,
    "व्यक्": 572,
    "व्यक्ति": 573,
    "दु": 574,
    "दुः": 575,
    "दुःख": 576,
    "शनि": 577,
    "शनिवार": 578,
    "पार": 579,
    "पार्ट": 580,
    "पार्टी": 581,
    "संगी": 582,
    "संगीत": 583,
    "गां": 584,
    "गांव": 585,
    "सर": 586,
    "सरका": 587,
    "सरकार": 588,
    "धर": 589,
    "धरती": 590,
    "सप": 591,
    "सप्": 592,
    "सप्ता": 593,
    "सप्ताह": 594,
    "कर्म": 595,
    "प्रध": 596,
    "प्रधान": 597,
    "प्रधानमंत्री": 598,
    "नागपुर": 599,
    "बोल": 600,
    "बोलना": 601,
    "नाना": 602,
    "प्रे": 603,
    "प्रेम": 604,
    "तीन": 605,
    "स्वत": 606,
    "स्वतंत": 607,
    "स्वतंत्र": 608,
    "स्वतंत्रता": 609,
    "धीमा": 610,
    "डि": 611,
    "डिग": 612,
    "डिग्री": 613,
    "सूर्य": 614,
    "गी": 615,
    "गीला": 616,
    "कं": 617,
    "कंप": 618,
    "कंप्य": 619,
    "कंप्यू": 620,
    "कंप्यूटर": 621,
    "चाचा": 622,
    "पिता": 623,
    "चाची": 624,
    "फू": 625,
    "फूल": 626,
    "पां": 627,
    "पांच": 628,
    "गर्म": 629,
    "चंद": 630,
    "चंद्र": 631,
    "सूख": 632,
    "सूखा": 633,
    "नृ": 634,
    "नृत्य": 635,
    "संसद": 636,
    "मसाला": 637,
    "क्रि": 638,
    "क्रिसम": 639,
    "क्रिसमस": 640,
    "पुस्": 641,
    "पुस्तक": 642,
    "चाली": 643,
    "चालीस": 644,
    "संस्कृ": 645,
    "संस्कृति": 646,
    "ऐप": 647,
    "कवि": 648,
    "कविता": 649,
    "उठ": 650,
    "उठना": 651,
    "न्यायालय": 652,
    "असत्य": 653,
    "पशु": 654,
    "ज्": 655,
    "ज्ञ": 656,
    "ज्ञान": 657,
    "कान": 658,
    "कानपुर": 659,
    "दू": 660,
    "दूध": 661,
    "मामा": 662,
    "दादा": 663,
    "जय": 664,
    "जयपुर": 665,
    "पी": 666,
    "पीना": 667,
    "बिक": 668,
    "बिक्री": 669,
    "करो": 670,
    "करोड़": 671,
    "ध्व": 672,
    "ध्वनि": 673,
    "बी": 674,
    "बीस": 675,
    "रिक": 676,
    "दस": 677,
    "इं": 678,
    "इंटर": 679,
    "इंटरनेट": 680,
    "ले": 681,
    "लेन": 682,
    "लेनदे": 683,
    "लेनदेन": 684,
    "चाय": 685,
    "कला": 686,
    "पुण": 687,
    "पुणे": 688,
    "निर्": 689,
    "निर्माण": 690,
    "शाम": 691,
    "भाई": 692,
    "प्रशिक्ष": 693,
    "प्रशिक्षण": 694,
    "सब्": 695,
    "सब्ज": 696,
    "सब्जी": 697,
    "विधानस": 698,
    "विधानसभा": 699,
    "स्पर": 700,
    "स्पर्": 701,
    "स्पर्श": 702,
    "खू": 703,
    "खूब": 704,
    "खूबसूर": 705,
    "खूबसूरत": 706,
    "परिवर्": 707,
    "परिवर्त": 708,
    "परिवर्तन": 709,
    "पुलि": 710,
    "पुलिस": 711,
    "पक्ष": 712,
    "पक्षी": 713,
    "माम": 714,
    "मामी": 715,
    "परी": 716,
    "परीक्षा": 717,
    "ऊं": 718,
    "ऊंचा": 719,
    "करना": 720,
    "सुध": 721,
    "सुधार": 722,
    "रं": 723,
    "रंग": 724,
    "शुक्र": 725,
    "शुक्रवार": 726,
    "प्रमाण": 727,
    "प्रमाणप": 728,
    "प्रमाणपत्र": 729,
    "सांसद": 730,
    "पुत्र": 731,
    "साहि": 732,
    "साहित्य": 733,
    "सेना": 734,
    "सौ": 735,
    "शे": 736,
    "शेर": 737,
    "नम": 738,
    "नमकी": 739,
    "नमकीन": 740,
    "तार": 741,
    "तारा": 742,
    "नानी": 743,
    "जंगल": 744,
    "बहन": 745,
    "मंगल": 746,
    "मंगलवार": 747,
    "समा": 748,
    "समाज": 749,
    "लख": 750,
    "लखन": 751,
    "लखनऊ": 752,
    "ठं": 753,
    "ठंड": 754,
    "ठंडा": 755,
    "रवि": 756,
    "रविवार": 757,
    "आना": 758,
    "विधा": 759,
    "विधायक": 760
  },
  "merges": [
    [
      "ह",
      "ै"
    ],
    [
      "क",
      "ा"
    ],
    [
      "है",
      "।"
    ],
    [
      "ं",
      "।"
    ],
    [
      "े",
      "ं"
    ],
    [
      "्",
      "र"
    ],
    [
      "ब",
      "ह"
    ],
    [
      "ु",
      "त"
    ],
    [
      "बह",
      "ुत"
    ],
    [
      "ा",
      "न"
    ],
    [
      "म",
      "ें"
    ],
    [
      "औ",
      "र"
    ],
    [
      "ं",
      "द"
    ],
    [
      "म",
      "ु"
    ],
    [
      "व",
      "ि"
    ],
    [
      "प",
      "्र"
    ],
    [
      "्",
      "य"
    ],
    [
      "ए",
      "क"
    ],
    [
      "ो",
      "ग"
    ],
    [
      "ा",
      "र"
    ],
    [
      "ि",
      "न"
    ],
    [
      "है",
      "ं।"
    ],
    [
      "ु",
      "र"
    ],
    [
      "े",
      "क"
    ],
    [
      "ह",
      "र"
    ],
    [
      "अ",
      "च"
    ],
    [
      "अच",
      "्"
    ],
    [
      "अच्",
      "छ"
    ],
    [
      "ह",
      "ी"
    ],
    [
      "आ",
      "ज"
    ],
    [
      "ह",
      "ोग"
    ],
    [
      "होग",
      "ा"
    ],
    [
      "श",
      "हर"
    ],
    [
      "अच्छ",
      "े"
    ],
    [
      "मु",
      "झ"
    ],
    [
      "मुझ",
      "े"
    ],
    [
      "प",
      "स"
    ],
    [
      "पस",
      "ंद"
    ],
    [
      "ल",
      "ेक"
    ],
    [
      "लेक",
      "िन"
    ],
    [
      "न",
      "ही"
    ],
    [
      "नही",
      "ं।"
    ],
    [
      "होगा",
      "।"
    ],
    [
      "ा",
      "ल"
    ],
    [
      "प",
      "र"
    ],
    [
      "त",
      "ा"
    ],
    [
      "ान",
      "ा"
    ],
    [
      "न",
      "ा"
    ],
    [
      "्",
      "व"
    ],
    [
      "ि",
      "क"
    ],
    [
      "ष",
      "ा"
    ],
    [
      "द",
      "्"
    ],
    [
      "द्",
      "ध"
    ],
    [
      "ो",
      "ल"
    ],
    [
      "स",
      "ु"
    ],
    [
      "प",
      "ुर"
    ],
    [
      "ड",
      "़"
    ],
    [
      "ो",
      "ं"
    ],
    [
      "ल",
      "ि"
    ],
    [
      "वि",
      "श"
    ],
    [
      "्",
      "न"
    ],
    [
      "र",
      "ा"
    ],
    [
      "प्र",
      "स"
    ],
    [
      "प्रस",
      "ि"
    ],
    [
      "प्रसि",
      "द्ध"
    ],
    [
      "भ",
      "ार"
    ],
    [
      "भार",
      "त"
    ],
    [
      "द",
      "े"
    ],
    [
      "ब",
      "ड़"
    ],
    [
      "भ",
      "ा"
    ],
    [
      "ग",
      "ल"
    ],
    [
      "ल",
      "ी"
    ],
    [
      "पुर",
      "ाना"
    ],
    [
      "ह",
      "ान"
    ],
    [
      "ुर",
      "ु"
    ],
    [
      "विश",
      "्व"
    ],
    [
      "न",
      "्न"
    ],
    [
      "ा",
      "ं"
    ],
    [
      "स",
      "्"
    ],
    [
      "क",
      "ोल"
    ],
    [
      "कोल",
      "का"
    ],
    [
      "कोलका",
      "ता"
    ],
    [
      "सु",
      "ंद"
    ],
    [
      "सुंद",
      "र"
    ],
    [
      "द",
      "ि"
    ],
    [
      "दि",
      "ल"
    ],
    [
      "दिल",
      "्"
    ],
    [
      "दिल्",
      "ली"
    ],
    [
      "म",
      "हान"
    ],
    [
      "स",
      "े"
    ],
    [
      "क",
      "ी"
    ],
    [
      "ब",
      "ें"
    ],
    [
      "बें",
      "गल"
    ],
    [
      "बेंगल",
      "ुरु"
    ],
    [
      "च",
      "े"
    ],
    [
      "चे",
      "न्न"
    ],
    [
      "चेन्न",
      "ई"
    ],
    [
      "मु",
      "ं"
    ],
    [
      "मुं",
      "ब"
    ],
    [
      "मुंब",
      "ई"
    ],
    [
      "बड़",
      "ा"
    ],
    [
      "त",
      "ि"
    ],
    [
      "र",
      "्"
    ],
    [
      "भा",
      "षा"
    ],
    [
      "प",
      "न"
    ],
    [
      "दे",
      "श"
    ],
    [
      "पर",
      "ं"
    ],
    [
      "परं",
      "पर"
    ],
    [
      "परंपर",
      "ा"
    ],
    [
      "च",
      "ा"
    ],
    [
      "व",
      "ार"
    ],
    [
      "्",
      "षा"
    ],
    [
      "श",
      "िक"
    ],
    [
      "म",
      "ा"
    ],
    [
      "ाल",
      "य"
    ],
    [
      "त",
      "्य"
    ],
    [
      "अ",
      "पन"
    ],
    [
      "क",
      "े"
    ],
    [
      "लि",
      "ए"
    ],
    [
      "ओ",
      "ं"
    ],
    [
      "वि",
      "द"
    ],
    [
      "विद",
      "्य"
    ],
    [
      "विद्य",
      "ालय"
    ],
    [
      "द",
      "ा"
    ],
    [
      "ि",
      "य"
    ],
    [
      "शिक",
      "्षा"
    ],
    [
      "स्",
      "थ"
    ],
    [
      "रा",
      "ज"
    ],
    [
      "ाल",
      "ी"
    ],
    [
      "च",
      "ी"
    ],
    [
      "स",
      "ब"
    ],
    [
      "स",
      "्व"
    ],
    [
      "द",
      "ी"
    ],
    [
      "स",
      "म"
    ],
    [
      "र्",
      "म"
    ],
    [
      "ल",
      "ा"
    ],
    [
      "त",
      "ी"
    ],
    [
      "स",
      "ं"
    ],
    [
      "्",
      "ष"
    ],
    [
      "्र",
      "ी"
    ],
    [
      "ज",
      "ो"
    ],
    [
      "अपन",
      "ी"
    ],
    [
      "ज",
      "ा"
    ],
    [
      "य",
      "ह"
    ],
    [
      "भाषा",
      "ओं"
    ],
    [
      "सब",
      "से"
    ],
    [
      "भारत",
      "ी"
    ],
    [
      "भारती",
      "य"
    ],
    [
      "प्र",
      "ण"
    ],
    [
      "य",
      "ोग"
    ],
    [
      "ढ",
      "़"
    ],
    [
      "स्व",
      "ा"
    ],
    [
      "व",
      "्य"
    ],
    [
      "क",
      "ृ"
    ],
    [
      "प",
      "ा"
    ],
    [
      "ना",
      "ग"
    ],
    [
      "ज",
      "न"
    ],
    [
      "ख",
      "ाना"
    ],
    [
      "ब",
      "ा"
    ],
    [
      "्",
      "ट"
    ],
    [
      "वि",
      "ध"
    ],
    [
      "है",
      "ं"
    ],
    [
      "ध",
      "र्म"
    ],
    [
      "र",
      "ी"
    ],
    [
      "प्र",
      "ा"
    ],
    [
      "प्रा",
      "ची"
    ],
    [
      "प्राची",
      "न"
    ],
    [
      "श",
      "ां"
    ],
    [
      "शां",
      "ति"
    ],
    [
      "ोल",
      "ी"
    ],
    [
      "लि",
      "ख"
    ],
    [
      "ह",
      "ज"
    ],
    [
      "हज",
      "ार"
    ],
    [
      "विश्व",
      "विद्यालय"
    ],
    [
      "ह",
      "ा"
    ],
    [
      "ज",
      "ाना"
    ],
    [
      "सं",
      "ग"
    ],
    [
      "प",
      "ि"
    ],
    [
      "स्",
      "कृ"
    ],
    [
      "म",
      "स"
    ],
    [
      "मस",
      "ाल"
    ],
    [
      "राज",
      "्य"
    ],
    [
      "ान",
      "स"
    ],
    [
      "क",
      "्ष"
    ],
    [
      "स",
      "ां"
    ],
    [
      "न",
      "े"
    ],
    [
      "य",
      "क"
    ],
    [
      "व",
      "े"
    ],
    [
      "व",
      "र्"
    ],
    [
      "्य",
      "ा"
    ],
    [
      "स",
      "ा"
    ],
    [
      "ं",
      "त"
    ],
    [
      "न",
      "ि"
    ],
    [
      "स",
      "ू"
    ],
    [
      "प",
      "ु"
    ],
    [
      "ो",
      "ट"
    ],
    [
      "े",
      "ज"
    ],
    [
      "द",
      "क्ष"
    ],
    [
      "दक्ष",
      "ि"
    ],
    [
      "दक्षि",
      "ण"
    ],
    [
      "ए",
      "श"
    ],
    [
      "एश",
      "िय"
    ],
    [
      "एशिय",
      "ा"
    ],
    [
      "स्थ",
      "ि"
    ],
    [
      "स्थि",
      "त"
    ],
    [
      "विश",
      "ाल"
    ],
    [
      "सम",
      "ृ"
    ],
    [
      "समृ",
      "द्ध"
    ],
    [
      "सां",
      "स्कृ"
    ],
    [
      "सांस्कृ",
      "त"
    ],
    [
      "सांस्कृत",
      "िक"
    ],
    [
      "वि",
      "रा"
    ],
    [
      "विरा",
      "स"
    ],
    [
      "विरास",
      "त"
    ],
    [
      "जा",
      "ता"
    ],
    [
      "यह",
      "ां"
    ],
    [
      "वि",
      "भ"
    ],
    [
      "विभ",
      "िन"
    ],
    [
      "विभिन",
      "्न"
    ],
    [
      "धर्म",
      "ों"
    ],
    [
      "धर्मों",
      ","
    ],
    [
      "परंपरा",
      "ओं"
    ],
    [
      "संग",
      "म"
    ],
    [
      "ह",
      "िन"
    ],
    [
      "हिन",
      "्"
    ],
    [
      "हिन्",
      "दी"
    ],
    [
      "राज",
      "भाषा"
    ],
    [
      "अ",
      "ध"
    ],
    [
      "अध",
      "िक"
    ],
    [
      "ब",
      "ोली"
    ],
    [
      "ज",
      "ान"
    ],
    [
      "जान",
      "े"
    ],
    [
      "व",
      "ाली"
    ],
    [
      "दे",
      "व"
    ],
    [
      "देव",
      "नाग"
    ],
    [
      "देवनाग",
      "री"
    ],
    [
      "लि",
      "पि"
    ],
    [
      "लिख",
      "ी"
    ],
    [
      "जा",
      "ती"
    ],
    [
      "प्रण",
      "ाली"
    ],
    [
      "बड़",
      "ी"
    ],
    [
      "प्रण",
      "ाल"
    ],
    [
      "प्रणाल",
      "िय"
    ],
    [
      "प्रणालिय",
      "ों"
    ],
    [
      "हजार",
      "ों"
    ],
    [
      "अपन",
      "े"
    ],
    [
      "वि",
      "विध"
    ],
    [
      "व्य",
      "ं"
    ],
    [
      "व्यं",
      "जन"
    ],
    [
      "व्यंजन",
      "ों"
    ],
    [
      "मसाल",
      "ों"
    ],
    [
      "प्र",
      "त्य"
    ],
    [
      "प्रत्य",
      "ेक"
    ],
    [
      "अ",
      "न"
    ],
    [
      "अन",
      "ू"
    ],
    [
      "अनू",
      "ठ"
    ],
    [
      "अनूठ",
      "ी"
    ],
    [
      "पा",
      "क"
    ],
    [
      "ध",
      "्य"
    ],
    [
      "ध्य",
      "ान"
    ],
    [
      "परंपरा",
      "ए"
    ],
    [
      "परंपराए",
      "ं"
    ],
    [
      "स्वा",
      "स्थ"
    ],
    [
      "स्वास्थ",
      "्य"
    ],
    [
      "म",
      "ानस"
    ],
    [
      "मानस",
      "िक"
    ],
    [
      "ला",
      "भ"
    ],
    [
      "लाभ",
      "दा"
    ],
    [
      "लाभदा",
      "यक"
    ],
    [
      "अ",
      "ब"
    ],
    [
      "विश्व",
      "भ"
    ],
    [
      "विश्वभ",
      "र"
    ],
    [
      "प्र",
      "च"
    ],
    [
      "प्रच",
      "ल"
    ],
    [
      "प्रचल",
      "न"
    ],
    [
      "ब",
      "ढ़"
    ],
    [
      "र",
      "हा"
    ],
    [
      "क",
      "ॉ"
    ],
    [
      "प",
      "ढ़"
    ],
    [
      "ा",
      "ई"
    ],
    [
      "न",
      "ी"
    ],
    [
      "स",
      "ो"
    ],
    [
      "म",
      "ो"
    ],
    [
      "ा",
      "प"
    ],
    [
      "ध",
      "ी"
    ],
    [
      "भ",
      "ो"
    ],
    [
      "ह",
      "ार"
    ],
    [
      "वे",
      "य"
    ],
    [
      "वेय",
      "र"
    ],
    [
      "द",
      "ो"
    ],
    [
      "बा",
      "द"
    ],
    [
      "क",
      "्षा"
    ],
    [
      "रा",
      "ष"
    ],
    [
      "राष",
      "्ट"
    ],
    [
      "राष्ट",
      "्र"
    ],
    [
      "त",
      "क"
    ],
    [
      "ने",
      "ट"
    ],
    [
      "म",
      "ंत"
    ],
    [
      "मंत",
      "्री"
    ],
    [
      "प",
      "ुत"
    ],
    [
      "पर",
      "ि"
    ],
    [
      "शिक",
      "्ष"
    ],
    [
      "ा",
      "म"
    ],
    [
      "ह",
      "ि"
    ],
    [
      "ान",
      "ी"
    ],
    [
      "ट",
      "र"
    ],
    [
      "त",
      "्र"
    ],
    [
      "सू",
      "र"
    ],
    [
      "न",
      "्या"
    ],
    [
      "न्या",
      "य"
    ],
    [
      "स",
      "त्य"
    ],
    [
      "स",
      "द"
    ],
    [
      "क",
      "्र"
    ],
    [
      "श",
      "ु"
    ],
    [
      "क",
      "र"
    ],
    [
      "मा",
      "ण"
    ],
    [
      "ं",
      "गल"
    ],
    [
      "छ",
      "ोट"
    ],
    [
      "छोट",
      "ा"
    ],
    [
      "सु",
      "बह"
    ],
    [
      "त",
      "ेज"
    ],
    [
      "वि",
      "का"
    ],
    [
      "विका",
      "स"
    ],
    [
      "पढ़",
      "ना"
    ],
    [
      "प्र",
      "कृ"
    ],
    [
      "प्रकृ",
      "ति"
    ],
    [
      "क",
      "क्षा"
    ],
    [
      "रा",
      "ं"
    ],
    [
      "रां",
      "ची"
    ],
    [
      "कॉ",
      "फ"
    ],
    [
      "कॉफ",
      "ी"
    ],
    [
      "म",
      "ि"
    ],
    [
      "मि",
      "ठ"
    ],
    [
      "मिठ",
      "ाई"
    ],
    [
      "य",
      "ु"
    ],
    [
      "यु",
      "द्ध"
    ],
    [
      "ल",
      "ो"
    ],
    [
      "लो",
      "क"
    ],
    [
      "लोक",
      "प्र"
    ],
    [
      "लोकप्र",
      "िय"
    ],
    [
      "सु",
      "ख"
    ],
    [
      "उ",
      "पन"
    ],
    [
      "उपन",
      "्या"
    ],
    [
      "उपन्या",
      "स"
    ],
    [
      "र",
      "ोट"
    ],
    [
      "रोट",
      "ी"
    ],
    [
      "ला",
      "ख"
    ],
    [
      "सा",
      "त"
    ],
    [
      "न",
      "ौ"
    ],
    [
      "व्य",
      "ाप"
    ],
    [
      "व्याप",
      "ार"
    ],
    [
      "अच्छ",
      "ा"
    ],
    [
      "स्वा",
      "धी"
    ],
    [
      "स्वाधी",
      "न"
    ],
    [
      "स्वाधीन",
      "ता"
    ],
    [
      "नी",
      "चा"
    ],
    [
      "ह",
      "ों"
    ],
    [
      "हों",
      "ग"
    ],
    [
      "होंग",
      "े"
    ],
    [
      "ने",
      "ता"
    ],
    [
      "कॉ",
      "ल"
    ],
    [
      "कॉल",
      "ेज"
    ],
    [
      "मा",
      "ता"
    ],
    [
      "ख",
      "री"
    ],
    [
      "खरी",
      "द"
    ],
    [
      "सो",
      "म"
    ],
    [
      "सोम",
      "वार"
    ],
    [
      "ड",
      "े"
    ],
    [
      "डे",
      "ट"
    ],
    [
      "डेट",
      "ा"
    ],
    [
      "छ",
      "ह"
    ],
    [
      "ल",
      "ोग"
    ],
    [
      "रा",
      "त"
    ],
    [
      "सो",
      "ना"
    ],
    [
      "न",
      "ई"
    ],
    [
      "मो",
      "र"
    ],
    [
      "भो",
      "जन"
    ],
    [
      "हार",
      "्"
    ],
    [
      "हार्",
      "ड"
    ],
    [
      "हार्ड",
      "वेयर"
    ],
    [
      "सम",
      "ान"
    ],
    [
      "समान",
      "ता"
    ],
    [
      "दे",
      "ख"
    ],
    [
      "देख",
      "ना"
    ],
    [
      "तक",
      "नी"
    ],
    [
      "तकनी",
      "क"
    ],
    [
      "ग",
      "ुरु"
    ],
    [
      "गुरु",
      "वार"
    ],
    [
      "स",
      "मु"
    ],
    [
      "समु",
      "द"
    ],
    [
      "समुद",
      "्र"
    ],
    [
      "प्र",
      "ग"
    ],
    [
      "प्रग",
      "ति"
    ],
    [
      "पढ़",
      "ाई"
    ],
    [
      "थ",
      "ा"
    ],
    [
      "ग",
      "ं"
    ],
    [
      "गं",
      "ध"
    ],
    [
      "बा",
      "घ"
    ],
    [
      "नेट",
      "वर्"
    ],
    [
      "नेटवर्",
      "क"
    ],
    [
      "पुत",
      "्री"
    ],
    [
      "मो",
      "बा"
    ],
    [
      "मोबा",
      "इ"
    ],
    [
      "मोबाइ",
      "ल"
    ],
    [
      "पर",
      "्व"
    ],
    [
      "पर्व",
      "त"
    ],
    [
      "ह",
      "ोली"
    ],
    [
      "ब",
      "ु"
    ],
    [
      "बु",
      "ध"
    ],
    [
      "बुध",
      "वार"
    ],
    [
      "सम",
      "य"
    ],
    [
      "क",
      "ल"
    ],
    [
      "प",
      "ानी"
    ],
    [
      "उ",
      "न्न"
    ],
    [
      "उन्न",
      "ति"
    ],
    [
      "प",
      "ट"
    ],
    [
      "पट",
      "ना"
    ],
    [
      "दी",
      "पा"
    ],
    [
      "दीपा",
      "व"
    ],
    [
      "दीपाव",
      "ली"
    ],
    [
      "वर्",
      "ष"
    ],
    [
      "द",
      "िन"
    ],
    [
      "अ",
      "ह"
    ],
    [
      "अह",
      "म"
    ],
    [
      "अहम",
      "दा"
    ],
    [
      "अहमदा",
      "बाद"
    ],
    [
      "आ",
      "ध"
    ],
    [
      "आध",
      "ु"
    ],
    [
      "आधु",
      "न"
    ],
    [
      "आधुन",
      "िक"
    ],
    [
      "घ",
      "ृ"
    ],
    [
      "घृ",
      "ण"
    ],
    [
      "घृण",
      "ा"
    ],
    [
      "म",
      "ही"
    ],
    [
      "मही",
      "ना"
    ],
    [
      "हि",
      "र"
    ],
    [
      "हिर",
      "ण"
    ],
    [
      "लिख",
      "ना"
    ],
    [
      "दो",
      "प"
    ],
    [
      "दोप",
      "हर"
    ],
    [
      "परि",
      "वार"
    ],
    [
      "फ",
      "ल"
    ],
    [
      "पर",
      "स"
    ],
    [
      "परस",
      "ों"
    ],
    [
      "सु",
      "न"
    ],
    [
      "सुन",
      "ना"
    ],
    [
      "हा",
      "थ"
    ],
    [
      "हाथ",
      "ी"
    ],
    [
      "प",
      "चा"
    ],
    [
      "पचा",
      "स"
    ],
    [
      "च",
      "ार"
    ],
    [
      "इ",
      "ंद"
    ],
    [
      "इंद",
      "ौ"
    ],
    [
      "इंदौ",
      "र"
    ],
    [
      "भा",
      "ग"
    ],
    [
      "भाग",
      "्य"
    ],
    [
      "चा",
      "व"
    ],
    [
      "चाव",
      "ल"
    ],
    [
      "ती",
      "स"
    ],
    [
      "राष्ट्र",
      "प"
    ],
    [
      "राष्ट्रप",
      "ति"
    ],
    [
      "दा",
      "दी"
    ],
    [
      "व",
      "न"
    ],
    [
      "उ",
      "त"
    ],
    [
      "उत",
      "्"
    ],
    [
      "उत्",
      "पा"
    ],
    [
      "उत्पा",
      "द"
    ],
    [
      "उत्पाद",
      "न"
    ],
    [
      "न",
      "दी"
    ],
    [
      "प",
      "े"
    ],
    [
      "पे",
      "ड़"
    ],
    [
      "आ",
      "ठ"
    ],
    [
      "शिक्ष",
      "क"
    ],
    [
      "स्वा",
      "द"
    ],
    [
      "थ",
      "े"
    ],
    [
      "स्थ",
      "ाप"
    ],
    [
      "स्थाप",
      "ना"
    ],
    [
      "भो",
      "प"
    ],
    [
      "भोप",
      "ाल"
    ],
    [
      "है",
      "द"
    ],
    [
      "हैद",
      "रा"
    ],
    [
      "हैदरा",
      "बाद"
    ],
    [
      "च",
      "ु"
    ],
    [
      "चु",
      "ना"
    ],
    [
      "चुना",
      "व"
    ],
    [
      "प्र",
      "ोग"
    ],
    [
      "प्रोग",
      "्र"
    ],
    [
      "प्रोग्र",
      "ाम"
    ],
    [
      "आ",
      "का"
    ],
    [
      "आका",
      "श"
    ],
    [
      "ब",
      "ुर"
    ],
    [
      "बुर",
      "ा"
    ],
    [
      "क",
      "हान"
    ],
    [
      "कहान",
      "ी"
    ],
    [
      "त्य",
      "ो"
    ],
    [
      "त्यो",
      "हार"
    ],
    [
      "न",
      "य"
    ],
    [
      "नय",
      "ा"
    ],
    [
      "झ",
      "ी"
    ],
    [
      "झी",
      "ल"
    ],
    [
      "ई",
      "द"
    ],
    [
      "वे",
      "ब"
    ],
    [
      "वेब",
      "सा"
    ],
    [
      "वेबसा",
      "इ"
    ],
    [
      "वेबसाइ",
      "ट"
    ],
    [
      "द",
      "ाल"
    ],
    [
      "छ",
      "ा"
    ],
    [
      "छा",
      "त्र"
    ],
    [
      "स",
      "ॉ"
    ],
    [
      "सॉ",
      "फ"
    ],
    [
      "सॉफ",
      "्ट"
    ],
    [
      "सॉफ्ट",
      "वेयर"
    ],
    [
      "व्य",
      "क"
    ],
    [
      "व्यक",
      "्"
    ],
    [
      "व्यक्",
      "ति"
    ],
    [
      "द",
      "ु"
    ],
    [
      "दु",
      "ः"
    ],
    [
      "दुः",
      "ख"
    ],
    [
      "श",
      "नि"
    ],
    [
      "शनि",
      "वार"
    ],
    [
      "प",
      "ार"
    ],
    [
      "पार",
      "्ट"
    ],
    [
      "पार्ट",
      "ी"
    ],
    [
      "संग",
      "ी"
    ],
    [
      "संगी",
      "त"
    ],
    [
      "ग",
      "ां"
    ],
    [
      "गां",
      "व"
    ],
    [
      "स",
      "र"
    ],
    [
      "सर",
      "का"
    ],
    [
      "सरका",
      "र"
    ],
    [
      "ध",
      "र"
    ],
    [
      "धर",
      "ती"
    ],
    [
      "स",
      "प"
    ],
    [
      "सप",
      "्"
    ],
    [
      "सप्",
      "ता"
    ],
    [
      "सप्ता",
      "ह"
    ],
    [
      "क",
      "र्म"
    ],
    [
      "प्र",
      "ध"
    ],
    [
      "प्रध",
      "ान"
    ],
    [
      "प्रधान",
      "मंत्री"
    ],
    [
      "नाग",
      "पुर"
    ],
    [
      "ब",
      "ोल"
    ],
    [
      "बोल",
      "ना"
    ],
    [
      "न",
      "ाना"
    ],
    [
      "प्र",
      "े"
    ],
    [
      "प्रे",
      "म"
    ],
    [
      "ती",
      "न"
    ],
    [
      "स्व",
      "त"
    ],
    [
      "स्वत",
      "ंत"
    ],
    [
      "स्वतंत",
      "्र"
    ],
    [
      "स्वतंत्र",
      "ता"
    ],
    [
      "धी",
      "मा"
    ],
    [
      "ड",
      "ि"
    ],
    [
      "डि",
      "ग"
    ],
    [
      "डिग",
      "्री"
    ],
    [
      "सूर",
      "्य"
    ],
    [
      "ग",
      "ी"
    ],
    [
      "गी",
      "ला"
    ],
    [
      "क",
      "ं"
    ],
    [
      "कं",
      "प"
    ],
    [
      "कंप",
      "्य"
    ],
    [
      "कंप्य",
      "ू"
    ],
    [
      "कंप्यू",
      "टर"
    ],
    [
      "चा",
      "चा"
    ],
    [
      "पि",
      "ता"
    ],
    [
      "चा",
      "ची"
    ],
    [
      "फ",
      "ू"
    ],
    [
      "फू",
      "ल"
    ],
    [
      "प",
      "ां"
    ],
    [
      "पां",
      "च"
    ],
    [
      "ग",
      "र्म"
    ],
    [
      "च",
      "ंद"
    ],
    [
      "चंद",
      "्र"
    ],
    [
      "सू",
      "ख"
    ],
    [
      "सूख",
      "ा"
    ],
    [
      "न",
      "ृ"
    ],
    [
      "नृ",
      "त्य"
    ],
    [
      "सं",
      "सद"
    ],
    [
      "मसाल",
      "ा"
    ],
    [
      "क्र",
      "ि"
    ],
    [
      "क्रि",
      "सम"
    ],
    [
      "क्रिसम",
      "स"
    ],
    [
      "पु",
      "स्"
    ],
    [
      "पुस्",
      "तक"
    ],
    [
      "च",
      "ाली"
    ],
    [
      "चाली",
      "स"
    ],
    [
      "सं",
      "स्कृ"
    ],
    [
      "संस्कृ",
      "ति"
    ],
    [
      "ऐ",
      "प"
    ],
    [
      "क",
      "वि"
    ],
    [
      "कवि",
      "ता"
    ],
    [
      "उ",
      "ठ"
    ],
    [
      "उठ",
      "ना"
    ],
    [
      "न्याय",
      "ालय"
    ],
    [
      "अ",
      "सत्य"
    ],
    [
      "प",
      "शु"
    ],
    [
      "ज",
      "्"
    ],
    [
      "ज्",
      "ञ"
    ],
    [
      "ज्ञ",
      "ान"
    ],
    [
      "का",
      "न"
    ],
    [
      "कान",
      "पुर"
    ],
    [
      "द",
      "ू"
    ],
    [
      "दू",
      "ध"
    ],
    [
      "मा",
      "मा"
    ],
    [
      "दा",
      "दा"
    ],
    [
      "ज",
      "य"
    ],
    [
      "जय",
      "पुर"
    ],
    [
      "प",
      "ी"
    ],
    [
      "पी",
      "ना"
    ],
    [
      "ब",
      "िक"
    ],
    [
      "बिक",
      "्री"
    ],
    [
      "कर",
      "ो"
    ],
    [
      "करो",
      "ड़"
    ],
    [
      "ध",
      "्व"
    ],
    [
      "ध्व",
      "नि"
    ],
    [
      "ब",
      "ी"
    ],
    [
      "बी",
      "स"
    ],
    [
      "र",
      "िक"
    ],
    [
      "द",
      "स"
    ],
    [
      "इ",
      "ं"
    ],
    [
      "इं",
      "टर"
    ],
    [
      "इंटर",
      "नेट"
    ],
    [
      "ल",
      "े"
    ],
    [
      "ले",
      "न"
    ],
    [
      "लेन",
      "दे"
    ],
    [
      "लेनदे",
      "न"
    ],
    [
      "चा",
      "य"
    ],
    [
      "क",
      "ला"
    ],
    [
      "पु",
      "ण"
    ],
    [
      "पुण",
      "े"
    ],
    [
      "नि",
      "र्"
    ],
    [
      "निर्",
      "माण"
    ],
    [
      "श",
      "ाम"
    ],
    [
      "भा",
      "ई"
    ],
    [
      "प्र",
      "शिक्ष"
    ],
    [
      "प्रशिक्ष",
      "ण"
    ],
    [
      "सब",
      "्"
    ],
    [
      "सब्",
      "ज"
    ],
    [
      "सब्ज",
      "ी"
    ],
    [
      "विध",
      "ानस"
    ],
    [
      "विधानस",
      "भा"
    ],
    [
      "स्",
      "पर"
    ],
    [
      "स्पर",
      "्"
    ],
    [
      "स्पर्",
      "श"
    ],
    [
      "ख",
      "ू"
    ],
    [
      "खू",
      "ब"
    ],
    [
      "खूब",
      "सूर"
    ],
    [
      "खूबसूर",
      "त"
    ],
    [
      "परि",
      "वर्"
    ],
    [
      "परिवर्",
      "त"
    ],
    [
      "परिवर्त",
      "न"
    ],
    [
      "पु",
      "लि"
    ],
    [
      "पुलि",
      "स"
    ],
    [
      "प",
      "क्ष"
    ],
    [
      "पक्ष",
      "ी"
    ],
    [
      "मा",
      "म"
    ],
    [
      "माम",
      "ी"
    ],
    [
      "पर",
      "ी"
    ],
    [
      "परी",
      "क्षा"
    ],
    [
      "ऊ",
      "ं"
    ],
    [
      "ऊं",
      "चा"
    ],
    [
      "कर",
      "ना"
    ],
    [
      "सु",
      "ध"
    ],
    [
      "सुध",
      "ार"
    ],
    [
      "र",
      "ं"
    ],
    [
      "रं",
      "ग"
    ],
    [
      "शु",
      "क्र"
    ],
    [
      "शुक्र",
      "वार"
    ],
    [
      "प्र",
      "माण"
    ],
    [
      "प्रमाण",
      "प"
    ],
    [
      "प्रमाणप",
      "त्र"
    ],
    [
      "सां",
      "सद"
    ],
    [
      "पुत",
      "्र"
    ],
    [
      "सा",
      "हि"
    ],
    [
      "साहि",
      "त्य"
    ],
    [
      "से",
      "ना"
    ],
    [
      "स",
      "ौ"
    ],
    [
      "श",
      "े"
    ],
    [
      "शे",
      "र"
    ],
    [
      "न",
      "म"
    ],
    [
      "नम",
      "की"
    ],
    [
      "नमकी",
      "न"
    ],
    [
      "त",
      "ार"
    ],
    [
      "तार",
      "ा"
    ],
    [
      "न",
      "ानी"
    ],
    [
      "ज",
      "ंगल"
    ],
    [
      "बह",
      "न"
    ],
    [
      "म",
      "ंगल"
    ],
    [
      "मंगल",
      "वार"
    ],
    [
      "स",
      "मा"
    ],
    [
      "समा",
      "ज"
    ],
    [
      "ल",
      "ख"
    ],
    [
      "लख",
      "न"
    ],
    [
      "लखन",
      "ऊ"
    ],
    [
      "ठ",
      "ं"
    ],
    [
      "ठं",
      "ड"
    ],
    [
      "ठंड",
      "ा"
    ],
    [
      "र",
      "वि"
    ],
    [
      "रवि",
      "वार"
    ],
    [
      "आ",
      "ना"
    ],
    [
      "विध",
      "ा"
    ],
    [
      "विधा",
      "यक"
    ]
  ],
  "compression_stats": {
    "initial_compression": 1.0,
    "final_compression": 4.183535887274329,
    "compression_history": [
      {
        "iteration": 0,
        "vocab_size": 60,
        "compression_ratio": 1.0294796153325207,
        "best_pair": [
          "ह",
          "ै"
        ],
        "pair_freq": 217648
      },
      {
        "iteration": 500,
        "vocab_size": 560,
        "compression_ratio": 3.5532189419042135,
        "best_pair": [
          "ई",
          "द"
        ],
        "pair_freq": 1728
      }
    ],
    "base_vocab_size": 59,
    "final_vocab_size": 761,
    "num_merges": 702,
    "total_words": 308,
    "corpus_size": 9517447
  }
}